{
  "version": "1.0",
  "truncation": null,
  "padding": null,
  "added_tokens": [
    {
      "id": 0,
      "content": "[UNK]",
      "single_word": false,
      "lstrip": false,
      "rstrip": false,
      "normalized": false,
      "special": true
    },
    {
      "id": 1,
      "content": "[PAD]",
      "single_word": false,
      "lstrip": false,
      "rstrip": false,
      "normalized": false,
      "special": true
    },
    {
      "id": 2,
      "content": "[CLS]",
      "single_word": false,
      "lstrip": false,
      "rstrip": false,
      "normalized": false,
      "special": true
    },
    {
      "id": 3,
      "content": "[SEP]",
      "single_word": false,
      "lstrip": false,
      "rstrip": false,
      "normalized": false,
      "special": true
    },
    {
      "id": 4,
      "content": "[MASK]",
      "single_word": false,
      "lstrip": false,
      "rstrip": false,
      "normalized": false,
      "special": true
    },
    {
      "id": 25000,
      "content": "[s]",
      "single_word": false,
      "lstrip": false,
      "rstrip": false,
      "normalized": false,
      "special": true
    },
    {
      "id": 25001,
      "content": "[/s]",
      "single_word": false,
      "lstrip": false,
      "rstrip": false,
      "normalized": false,
      "special": true
    },
    {
      "id": 25002,
      "content": "[unk]",
      "single_word": false,
      "lstrip": false,
      "rstrip": false,
      "normalized": false,
      "special": true
    },
    {
      "id": 25003,
      "content": "[sep]",
      "single_word": false,
      "lstrip": false,
      "rstrip": false,
      "normalized": false,
      "special": true
    },
    {
      "id": 25004,
      "content": "[pad]",
      "single_word": false,
      "lstrip": false,
      "rstrip": false,
      "normalized": false,
      "special": true
    },
    {
      "id": 25005,
      "content": "[cls]",
      "single_word": false,
      "lstrip": false,
      "rstrip": false,
      "normalized": false,
      "special": true
    },
    {
      "id": 25006,
      "content": "[mask]",
      "single_word": false,
      "lstrip": false,
      "rstrip": false,
      "normalized": false,
      "special": true
    }
  ],
  "normalizer": {
    "type": "Sequence",
    "normalizers": [
      {
        "type": "Lowercase"
      },
      {
        "type": "NFD"
      },
      {
        "type": "StripAccents"
      }
    ]
  },
  "pre_tokenizer": null,
  "post_processor": {
    "type": "TemplateProcessing",
    "single": [
      {
        "SpecialToken": {
          "id": "[CLS]",
          "type_id": 0
        }
      },
      {
        "Sequence": {
          "id": "A",
          "type_id": 0
        }
      },
      {
        "SpecialToken": {
          "id": "[SEP]",
          "type_id": 0
        }
      }
    ],
    "pair": [
      {
        "SpecialToken": {
          "id": "[CLS]",
          "type_id": 0
        }
      },
      {
        "Sequence": {
          "id": "A",
          "type_id": 0
        }
      },
      {
        "SpecialToken": {
          "id": "[SEP]",
          "type_id": 0
        }
      },
      {
        "Sequence": {
          "id": "B",
          "type_id": 1
        }
      },
      {
        "SpecialToken": {
          "id": "[SEP]",
          "type_id": 1
        }
      }
    ],
    "special_tokens": {
      "[CLS]": {
        "id": "[CLS]",
        "ids": [
          2
        ],
        "tokens": [
          "[CLS]"
        ]
      },
      "[SEP]": {
        "id": "[SEP]",
        "ids": [
          3
        ],
        "tokens": [
          "[SEP]"
        ]
      }
    }
  },
  "decoder": {
    "type": "Metaspace",
    "replacement": "▁",
    "add_prefix_space": true
  },
  "model": {
    "type": "WordPiece",
    "unk_token": "[UNK]",
    "continuing_subword_prefix": "##",
    "max_input_chars_per_word": 100,
    "vocab": {
      "[UNK]": 0,
      "[PAD]": 1,
      "[CLS]": 2,
      "[SEP]": 3,
      "[MASK]": 4,
      "\t": 5,
      "\n": 6,
      " ": 7,
      "!": 8,
      "\"": 9,
      "#": 10,
      "$": 11,
      "%": 12,
      "&": 13,
      "'": 14,
      "(": 15,
      ")": 16,
      "*": 17,
      "+": 18,
      ",": 19,
      "-": 20,
      ".": 21,
      "/": 22,
      "0": 23,
      "1": 24,
      "2": 25,
      "3": 26,
      "4": 27,
      "5": 28,
      "6": 29,
      "7": 30,
      "8": 31,
      "9": 32,
      ":": 33,
      ";": 34,
      "<": 35,
      "=": 36,
      ">": 37,
      "?": 38,
      "@": 39,
      "[": 40,
      "\\": 41,
      "]": 42,
      "^": 43,
      "_": 44,
      "`": 45,
      "a": 46,
      "b": 47,
      "c": 48,
      "d": 49,
      "e": 50,
      "f": 51,
      "g": 52,
      "h": 53,
      "i": 54,
      "j": 55,
      "k": 56,
      "l": 57,
      "m": 58,
      "n": 59,
      "o": 60,
      "p": 61,
      "q": 62,
      "r": 63,
      "s": 64,
      "t": 65,
      "u": 66,
      "v": 67,
      "w": 68,
      "x": 69,
      "y": 70,
      "z": 71,
      "{": 72,
      "|": 73,
      "}": 74,
      "~": 75,
      "": 76,
      "": 77,
      "": 78,
      "": 79,
      " ": 80,
      "¡": 81,
      "¢": 82,
      "£": 83,
      "¤": 84,
      "¥": 85,
      "¦": 86,
      "§": 87,
      "¨": 88,
      "©": 89,
      "ª": 90,
      "«": 91,
      "¬": 92,
      "­": 93,
      "®": 94,
      "¯": 95,
      "°": 96,
      "±": 97,
      "²": 98,
      "³": 99,
      "´": 100,
      "µ": 101,
      "¶": 102,
      "·": 103,
      "¸": 104,
      "¹": 105,
      "º": 106,
      "»": 107,
      "¼": 108,
      "½": 109,
      "¾": 110,
      "¿": 111,
      "×": 112,
      "ß": 113,
      "æ": 114,
      "ð": 115,
      "÷": 116,
      "ø": 117,
      "þ": 118,
      "đ": 119,
      "ħ": 120,
      "ı": 121,
      "ł": 122,
      "ŋ": 123,
      "œ": 124,
      "ƒ": 125,
      "ƞ": 126,
      "ƣ": 127,
      "ƥ": 128,
      "ƭ": 129,
      "ƶ": 130,
      "ƿ": 131,
      "ǀ": 132,
      "ǂ": 133,
      "ǃ": 134,
      "ǝ": 135,
      "ȝ": 136,
      "ɐ": 137,
      "ɑ": 138,
      "ɒ": 139,
      "ɔ": 140,
      "ɕ": 141,
      "ɖ": 142,
      "ɗ": 143,
      "ɘ": 144,
      "ə": 145,
      "ɚ": 146,
      "ɛ": 147,
      "ɜ": 148,
      "ɞ": 149,
      "ɟ": 150,
      "ɡ": 151,
      "ɢ": 152,
      "ɣ": 153,
      "ɤ": 154,
      "ɦ": 155,
      "ɨ": 156,
      "ɪ": 157,
      "ɫ": 158,
      "ɬ": 159,
      "ɮ": 160,
      "ɯ": 161,
      "ɰ": 162,
      "ɱ": 163,
      "ɲ": 164,
      "ɴ": 165,
      "ɵ": 166,
      "ɶ": 167,
      "ɸ": 168,
      "ɹ": 169,
      "ɽ": 170,
      "ɾ": 171,
      "ʀ": 172,
      "ʁ": 173,
      "ʂ": 174,
      "ʃ": 175,
      "ʈ": 176,
      "ʉ": 177,
      "ʊ": 178,
      "ʋ": 179,
      "ʌ": 180,
      "ʎ": 181,
      "ʏ": 182,
      "ʑ": 183,
      "ʒ": 184,
      "ʔ": 185,
      "ʕ": 186,
      "ʘ": 187,
      "ʝ": 188,
      "ʟ": 189,
      "ʪ": 190,
      "ʫ": 191,
      "ʰ": 192,
      "ʱ": 193,
      "ʲ": 194,
      "ʷ": 195,
      "ʹ": 196,
      "ʻ": 197,
      "ʼ": 198,
      "ʽ": 199,
      "ʾ": 200,
      "ʿ": 201,
      "ˀ": 202,
      "ˈ": 203,
      "ˌ": 204,
      "ː": 205,
      "ˑ": 206,
      "˓": 207,
      "˗": 208,
      "˙": 209,
      "˚": 210,
      "ˠ": 211,
      "ˡ": 212,
      "ˣ": 213,
      "ˤ": 214,
      "˥": 215,
      "˧": 216,
      "˸": 217,
      "΄": 218,
      "α": 219,
      "β": 220,
      "γ": 221,
      "δ": 222,
      "ε": 223,
      "ζ": 224,
      "η": 225,
      "θ": 226,
      "ι": 227,
      "κ": 228,
      "λ": 229,
      "μ": 230,
      "ν": 231,
      "ξ": 232,
      "ο": 233,
      "π": 234,
      "ρ": 235,
      "ς": 236,
      "σ": 237,
      "τ": 238,
      "υ": 239,
      "φ": 240,
      "χ": 241,
      "ψ": 242,
      "ω": 243,
      "ϒ": 244,
      "ϕ": 245,
      "ϛ": 246,
      "ϝ": 247,
      "ϧ": 248,
      "ϩ": 249,
      "ϲ": 250,
      "а": 251,
      "б": 252,
      "в": 253,
      "г": 254,
      "д": 255,
      "е": 256,
      "ж": 257,
      "з": 258,
      "и": 259,
      "к": 260,
      "л": 261,
      "м": 262,
      "н": 263,
      "о": 264,
      "п": 265,
      "р": 266,
      "с": 267,
      "т": 268,
      "у": 269,
      "ф": 270,
      "х": 271,
      "ц": 272,
      "ч": 273,
      "ш": 274,
      "щ": 275,
      "ъ": 276,
      "ы": 277,
      "ь": 278,
      "э": 279,
      "ю": 280,
      "я": 281,
      "ђ": 282,
      "є": 283,
      "ѕ": 284,
      "і": 285,
      "ј": 286,
      "љ": 287,
      "њ": 288,
      "ћ": 289,
      "џ": 290,
      "ѣ": 291,
      "ѧ": 292,
      "ґ": 293,
      "ғ": 294,
      "җ": 295,
      "ҙ": 296,
      "қ": 297,
      "ҡ": 298,
      "ң": 299,
      "ҧ": 300,
      "ҫ": 301,
      "ү": 302,
      "ұ": 303,
      "ҳ": 304,
      "ҷ": 305,
      "ҹ": 306,
      "һ": 307,
      "ӄ": 308,
      "ӏ": 309,
      "ә": 310,
      "ө": 311,
      "ԓ": 312,
      "ԥ": 313,
      "՝": 314,
      "ա": 315,
      "բ": 316,
      "գ": 317,
      "դ": 318,
      "ե": 319,
      "զ": 320,
      "է": 321,
      "ը": 322,
      "թ": 323,
      "ժ": 324,
      "ի": 325,
      "լ": 326,
      "խ": 327,
      "ծ": 328,
      "կ": 329,
      "հ": 330,
      "ձ": 331,
      "ղ": 332,
      "ճ": 333,
      "մ": 334,
      "յ": 335,
      "ն": 336,
      "շ": 337,
      "ո": 338,
      "չ": 339,
      "պ": 340,
      "ջ": 341,
      "ռ": 342,
      "ս": 343,
      "վ": 344,
      "տ": 345,
      "ր": 346,
      "ց": 347,
      "ւ": 348,
      "փ": 349,
      "ք": 350,
      "օ": 351,
      "ֆ": 352,
      "և": 353,
      "։": 354,
      "־": 355,
      "׀": 356,
      "׃": 357,
      "א": 358,
      "ב": 359,
      "ג": 360,
      "ד": 361,
      "ה": 362,
      "ו": 363,
      "ז": 364,
      "ח": 365,
      "ט": 366,
      "י": 367,
      "ך": 368,
      "כ": 369,
      "ל": 370,
      "ם": 371,
      "מ": 372,
      "ן": 373,
      "נ": 374,
      "ס": 375,
      "ע": 376,
      "ף": 377,
      "פ": 378,
      "ץ": 379,
      "צ": 380,
      "ק": 381,
      "ר": 382,
      "ש": 383,
      "ת": 384,
      "װ": 385,
      "ױ": 386,
      "ײ": 387,
      "׳": 388,
      "״": 389,
      "؋": 390,
      "،": 391,
      "؏": 392,
      "؛": 393,
      "؜": 394,
      "؟": 395,
      "ء": 396,
      "ا": 397,
      "ب": 398,
      "ة": 399,
      "ت": 400,
      "ث": 401,
      "ج": 402,
      "ح": 403,
      "خ": 404,
      "د": 405,
      "ذ": 406,
      "ر": 407,
      "ز": 408,
      "س": 409,
      "ش": 410,
      "ص": 411,
      "ض": 412,
      "ط": 413,
      "ظ": 414,
      "ع": 415,
      "غ": 416,
      "ـ": 417,
      "ف": 418,
      "ق": 419,
      "ك": 420,
      "ل": 421,
      "م": 422,
      "ن": 423,
      "ه": 424,
      "و": 425,
      "ى": 426,
      "ي": 427,
      "٠": 428,
      "١": 429,
      "٢": 430,
      "٣": 431,
      "٤": 432,
      "٥": 433,
      "٦": 434,
      "٧": 435,
      "٨": 436,
      "٩": 437,
      "٪": 438,
      "٫": 439,
      "٬": 440,
      "٭": 441,
      "ٱ": 442,
      "ٲ": 443,
      "ٳ": 444,
      "ٴ": 445,
      "ٵ": 446,
      "ٶ": 447,
      "ٷ": 448,
      "ٸ": 449,
      "ٹ": 450,
      "ٽ": 451,
      "پ": 452,
      "ڀ": 453,
      "ځ": 454,
      "ڄ": 455,
      "څ": 456,
      "چ": 457,
      "ڈ": 458,
      "ڊ": 459,
      "ڌ": 460,
      "ڍ": 461,
      "ڑ": 462,
      "ړ": 463,
      "ڕ": 464,
      "ژ": 465,
      "ڙ": 466,
      "ښ": 467,
      "ڜ": 468,
      "ڠ": 469,
      "ڢ": 470,
      "ڤ": 471,
      "ڨ": 472,
      "ک": 473,
      "ڪ": 474,
      "ګ": 475,
      "ڬ": 476,
      "ڭ": 477,
      "گ": 478,
      "ڱ": 479,
      "ڴ": 480,
      "ڵ": 481,
      "ڷ": 482,
      "ں": 483,
      "ڻ": 484,
      "ڼ": 485,
      "ڽ": 486,
      "ھ": 487,
      "ہ": 488,
      "ۃ": 489,
      "ۆ": 490,
      "ۇ": 491,
      "ۈ": 492,
      "ۋ": 493,
      "ی": 494,
      "ۍ": 495,
      "ێ": 496,
      "ۏ": 497,
      "ې": 498,
      "ے": 499,
      "۔": 500,
      "ە": 501,
      "۝": 502,
      "۞": 503,
      "ۥ": 504,
      "ۦ": 505,
      "۰": 506,
      "۱": 507,
      "۲": 508,
      "۳": 509,
      "۴": 510,
      "۵": 511,
      "۶": 512,
      "۷": 513,
      "۸": 514,
      "۹": 515,
      "ܐ": 516,
      "ܒ": 517,
      "ܓ": 518,
      "ܕ": 519,
      "ܖ": 520,
      "ܗ": 521,
      "ܘ": 522,
      "ܙ": 523,
      "ܚ": 524,
      "ܛ": 525,
      "ܜ": 526,
      "ܝ": 527,
      "ܟ": 528,
      "ܠ": 529,
      "ܡ": 530,
      "ܢ": 531,
      "ܣ": 532,
      "ܥ": 533,
      "ܦ": 534,
      "ܨ": 535,
      "ܩ": 536,
      "ܪ": 537,
      "ܫ": 538,
      "ܬ": 539,
      "ݎ": 540,
      "ݐ": 541,
      "ݕ": 542,
      "ݘ": 543,
      "ݠ": 544,
      "ݢ": 545,
      "ݣ": 546,
      "ݭ": 547,
      "ݴ": 548,
      "ހ": 549,
      "ނ": 550,
      "ރ": 551,
      "ބ": 552,
      "ޅ": 553,
      "ކ": 554,
      "އ": 555,
      "ވ": 556,
      "މ": 557,
      "ދ": 558,
      "ތ": 559,
      "ލ": 560,
      "ސ": 561,
      "ޑ": 562,
      "ޔ": 563,
      "ޕ": 564,
      "ߊ": 565,
      "ߋ": 566,
      "ߌ": 567,
      "ߍ": 568,
      "ߎ": 569,
      "ߏ": 570,
      "ߓ": 571,
      "ߕ": 572,
      "ߘ": 573,
      "ߙ": 574,
      "ߛ": 575,
      "ߜ": 576,
      "ߝ": 577,
      "ߞ": 578,
      "ߟ": 579,
      "ߡ": 580,
      "ߣ": 581,
      "ߥ": 582,
      "ߦ": 583,
      "अ": 584,
      "आ": 585,
      "इ": 586,
      "ई": 587,
      "उ": 588,
      "ऊ": 589,
      "ऋ": 590,
      "ए": 591,
      "ऐ": 592,
      "क": 593,
      "ख": 594,
      "ग": 595,
      "घ": 596,
      "ङ": 597,
      "च": 598,
      "छ": 599,
      "ज": 600,
      "ञ": 601,
      "ट": 602,
      "ठ": 603,
      "ड": 604,
      "ढ": 605,
      "ण": 606,
      "त": 607,
      "थ": 608,
      "द": 609,
      "ध": 610,
      "न": 611,
      "प": 612,
      "फ": 613,
      "ब": 614,
      "भ": 615,
      "म": 616,
      "य": 617,
      "र": 618,
      "ल": 619,
      "ळ": 620,
      "व": 621,
      "श": 622,
      "ष": 623,
      "स": 624,
      "ह": 625,
      "ऽ": 626,
      "ॐ": 627,
      "।": 628,
      "॥": 629,
      "०": 630,
      "२": 631,
      "३": 632,
      "॰": 633,
      "অ": 634,
      "আ": 635,
      "ই": 636,
      "ঈ": 637,
      "উ": 638,
      "এ": 639,
      "ঐ": 640,
      "ও": 641,
      "ক": 642,
      "খ": 643,
      "গ": 644,
      "ঘ": 645,
      "ঙ": 646,
      "চ": 647,
      "ছ": 648,
      "জ": 649,
      "ট": 650,
      "ড": 651,
      "ঢ": 652,
      "ণ": 653,
      "ত": 654,
      "থ": 655,
      "দ": 656,
      "ধ": 657,
      "ন": 658,
      "প": 659,
      "ফ": 660,
      "ব": 661,
      "ভ": 662,
      "ম": 663,
      "য": 664,
      "র": 665,
      "ল": 666,
      "শ": 667,
      "ষ": 668,
      "স": 669,
      "হ": 670,
      "ৎ": 671,
      "১": 672,
      "২": 673,
      "৩": 674,
      "৪": 675,
      "৫": 676,
      "৬": 677,
      "ৰ": 678,
      "ਅ": 679,
      "ਆ": 680,
      "ਇ": 681,
      "ਉ": 682,
      "ਓ": 683,
      "ਕ": 684,
      "ਗ": 685,
      "ਘ": 686,
      "ਜ": 687,
      "ਟ": 688,
      "ਤ": 689,
      "ਦ": 690,
      "ਧ": 691,
      "ਨ": 692,
      "ਪ": 693,
      "ਬ": 694,
      "ਭ": 695,
      "ਮ": 696,
      "ਰ": 697,
      "ਲ": 698,
      "ਵ": 699,
      "ਸ": 700,
      "ਹ": 701,
      "ੴ": 702,
      "ક": 703,
      "છ": 704,
      "ડ": 705,
      "ત": 706,
      "દ": 707,
      "ન": 708,
      "પ": 709,
      "ફ": 710,
      "ભ": 711,
      "મ": 712,
      "ય": 713,
      "ર": 714,
      "લ": 715,
      "ળ": 716,
      "વ": 717,
      "શ": 718,
      "સ": 719,
      "હ": 720,
      "ଆ": 721,
      "ଉ": 722,
      "ଖ": 723,
      "ଗ": 724,
      "ଙ": 725,
      "ଚ": 726,
      "ଡ": 727,
      "ଣ": 728,
      "ତ": 729,
      "ପ": 730,
      "ଳ": 731,
      "ଶ": 732,
      "ସ": 733,
      "ହ": 734,
      "அ": 735,
      "ஆ": 736,
      "இ": 737,
      "உ": 738,
      "ஊ": 739,
      "எ": 740,
      "க": 741,
      "ங": 742,
      "ச": 743,
      "ஜ": 744,
      "ட": 745,
      "ண": 746,
      "த": 747,
      "ந": 748,
      "ன": 749,
      "ப": 750,
      "ம": 751,
      "ய": 752,
      "ர": 753,
      "ற": 754,
      "ல": 755,
      "ள": 756,
      "ழ": 757,
      "வ": 758,
      "ஸ": 759,
      "అ": 760,
      "ఉ": 761,
      "ఏ": 762,
      "క": 763,
      "గ": 764,
      "జ": 765,
      "ట": 766,
      "డ": 767,
      "ణ": 768,
      "త": 769,
      "ద": 770,
      "న": 771,
      "ప": 772,
      "బ": 773,
      "మ": 774,
      "య": 775,
      "ర": 776,
      "ఱ": 777,
      "ల": 778,
      "వ": 779,
      "స": 780,
      "ಕ": 781,
      "ಗ": 782,
      "ಠ": 783,
      "ಡ": 784,
      "ತ": 785,
      "ಥ": 786,
      "ನ": 787,
      "ಪ": 788,
      "ಯ": 789,
      "ರ": 790,
      "ಳ": 791,
      "ವ": 792,
      "ಶ": 793,
      "ಸ": 794,
      "ಹ": 795,
      "ഇ": 796,
      "എ": 797,
      "ഔ": 798,
      "ക": 799,
      "ഗ": 800,
      "ച": 801,
      "ജ": 802,
      "ട": 803,
      "ത": 804,
      "ന": 805,
      "പ": 806,
      "ഫ": 807,
      "ബ": 808,
      "ഭ": 809,
      "മ": 810,
      "യ": 811,
      "റ": 812,
      "ല": 813,
      "ഴ": 814,
      "വ": 815,
      "ഷ": 816,
      "സ": 817,
      "ഹ": 818,
      "ൻ": 819,
      "ർ": 820,
      "ൽ": 821,
      "ආ": 822,
      "ඌ": 823,
      "එ": 824,
      "ක": 825,
      "ග": 826,
      "ච": 827,
      "ජ": 828,
      "ත": 829,
      "ද": 830,
      "ධ": 831,
      "න": 832,
      "ප": 833,
      "බ": 834,
      "ම": 835,
      "ය": 836,
      "ර": 837,
      "ල": 838,
      "ව": 839,
      "ශ": 840,
      "ස": 841,
      "හ": 842,
      "ළ": 843,
      "ก": 844,
      "ข": 845,
      "ค": 846,
      "ง": 847,
      "จ": 848,
      "ฉ": 849,
      "ช": 850,
      "ซ": 851,
      "ญ": 852,
      "ฎ": 853,
      "ฏ": 854,
      "ฐ": 855,
      "ฑ": 856,
      "ฒ": 857,
      "ณ": 858,
      "ด": 859,
      "ต": 860,
      "ถ": 861,
      "ท": 862,
      "ธ": 863,
      "น": 864,
      "บ": 865,
      "ป": 866,
      "ผ": 867,
      "ฝ": 868,
      "พ": 869,
      "ฟ": 870,
      "ภ": 871,
      "ม": 872,
      "ย": 873,
      "ร": 874,
      "ฤ": 875,
      "ล": 876,
      "ว": 877,
      "ศ": 878,
      "ษ": 879,
      "ส": 880,
      "ห": 881,
      "ฬ": 882,
      "อ": 883,
      "ฮ": 884,
      "ะ": 885,
      "า": 886,
      "ำ": 887,
      "฿": 888,
      "เ": 889,
      "แ": 890,
      "โ": 891,
      "ใ": 892,
      "ไ": 893,
      "ๆ": 894,
      "ກ": 895,
      "ຂ": 896,
      "ຄ": 897,
      "ງ": 898,
      "ຈ": 899,
      "ຊ": 900,
      "ດ": 901,
      "ຕ": 902,
      "ທ": 903,
      "ນ": 904,
      "ບ": 905,
      "ປ": 906,
      "ຜ": 907,
      "ພ": 908,
      "ມ": 909,
      "ຣ": 910,
      "ລ": 911,
      "ວ": 912,
      "ສ": 913,
      "ຫ": 914,
      "ອ": 915,
      "ຮ": 916,
      "ະ": 917,
      "າ": 918,
      "ຳ": 919,
      "ເ": 920,
      "ແ": 921,
      "ໂ": 922,
      "ໃ": 923,
      "ໄ": 924,
      "་": 925,
      "།": 926,
      "ཀ": 927,
      "ཁ": 928,
      "ག": 929,
      "ང": 930,
      "ཅ": 931,
      "ཐ": 932,
      "ད": 933,
      "ན": 934,
      "པ": 935,
      "ཕ": 936,
      "བ": 937,
      "མ": 938,
      "ཚ": 939,
      "ཛ": 940,
      "ཞ": 941,
      "འ": 942,
      "ར": 943,
      "ལ": 944,
      "ཤ": 945,
      "ས": 946,
      "က": 947,
      "ခ": 948,
      "ဂ": 949,
      "င": 950,
      "စ": 951,
      "ဆ": 952,
      "ဇ": 953,
      "ည": 954,
      "ဍ": 955,
      "တ": 956,
      "ထ": 957,
      "ဒ": 958,
      "န": 959,
      "ပ": 960,
      "ဗ": 961,
      "မ": 962,
      "ယ": 963,
      "ရ": 964,
      "လ": 965,
      "ဝ": 966,
      "သ": 967,
      "ဟ": 968,
      "အ": 969,
      "။": 970,
      "ၚ": 971,
      "ა": 972,
      "ბ": 973,
      "გ": 974,
      "დ": 975,
      "ე": 976,
      "ვ": 977,
      "ზ": 978,
      "თ": 979,
      "ი": 980,
      "კ": 981,
      "ლ": 982,
      "მ": 983,
      "ნ": 984,
      "ო": 985,
      "პ": 986,
      "ჟ": 987,
      "რ": 988,
      "ს": 989,
      "ტ": 990,
      "უ": 991,
      "ფ": 992,
      "ქ": 993,
      "ღ": 994,
      "ყ": 995,
      "შ": 996,
      "ჩ": 997,
      "ც": 998,
      "ძ": 999,
      "წ": 1000,
      "ჭ": 1001,
      "ხ": 1002,
      "ჯ": 1003,
      "ჰ": 1004,
      "ᄀ": 1005,
      "ᄁ": 1006,
      "ᄂ": 1007,
      "ᄃ": 1008,
      "ᄄ": 1009,
      "ᄅ": 1010,
      "ᄆ": 1011,
      "ᄇ": 1012,
      "ᄈ": 1013,
      "ᄉ": 1014,
      "ᄊ": 1015,
      "ᄋ": 1016,
      "ᄌ": 1017,
      "ᄍ": 1018,
      "ᄎ": 1019,
      "ᄏ": 1020,
      "ᄐ": 1021,
      "ᄑ": 1022,
      "ᄒ": 1023,
      "ᅡ": 1024,
      "ᅢ": 1025,
      "ᅣ": 1026,
      "ᅤ": 1027,
      "ᅥ": 1028,
      "ᅦ": 1029,
      "ᅧ": 1030,
      "ᅨ": 1031,
      "ᅩ": 1032,
      "ᅪ": 1033,
      "ᅫ": 1034,
      "ᅬ": 1035,
      "ᅭ": 1036,
      "ᅮ": 1037,
      "ᅯ": 1038,
      "ᅰ": 1039,
      "ᅱ": 1040,
      "ᅲ": 1041,
      "ᅳ": 1042,
      "ᅴ": 1043,
      "ᅵ": 1044,
      "ᆨ": 1045,
      "ᆫ": 1046,
      "ᆭ": 1047,
      "ᆮ": 1048,
      "ᆯ": 1049,
      "ᆰ": 1050,
      "ᆱ": 1051,
      "ᆲ": 1052,
      "ᆷ": 1053,
      "ᆸ": 1054,
      "ᆹ": 1055,
      "ᆺ": 1056,
      "ᆻ": 1057,
      "ᆼ": 1058,
      "ᆽ": 1059,
      "ᆾ": 1060,
      "ᇀ": 1061,
      "ᇁ": 1062,
      "ᇂ": 1063,
      "ሀ": 1064,
      "ሁ": 1065,
      "ሃ": 1066,
      "ህ": 1067,
      "ሆ": 1068,
      "ለ": 1069,
      "ሉ": 1070,
      "ሊ": 1071,
      "ላ": 1072,
      "ሌ": 1073,
      "ል": 1074,
      "ሎ": 1075,
      "ሐ": 1076,
      "ሓ": 1077,
      "ሔ": 1078,
      "ሕ": 1079,
      "መ": 1080,
      "ሚ": 1081,
      "ማ": 1082,
      "ም": 1083,
      "ሠ": 1084,
      "ረ": 1085,
      "ሩ": 1086,
      "ሪ": 1087,
      "ራ": 1088,
      "ር": 1089,
      "ሰ": 1090,
      "ሱ": 1091,
      "ሳ": 1092,
      "ስ": 1093,
      "ሸ": 1094,
      "ሽ": 1095,
      "ቀ": 1096,
      "ቁ": 1097,
      "ቂ": 1098,
      "ቅ": 1099,
      "ቆ": 1100,
      "ቍ": 1101,
      "በ": 1102,
      "ቡ": 1103,
      "ባ": 1104,
      "ብ": 1105,
      "ተ": 1106,
      "ታ": 1107,
      "ት": 1108,
      "ች": 1109,
      "ነ": 1110,
      "ና": 1111,
      "ኔ": 1112,
      "ን": 1113,
      "ኖ": 1114,
      "ኛ": 1115,
      "ኞ": 1116,
      "አ": 1117,
      "ኡ": 1118,
      "ኢ": 1119,
      "ኣ": 1120,
      "እ": 1121,
      "ካ": 1122,
      "ክ": 1123,
      "ወ": 1124,
      "ዊ": 1125,
      "ዋ": 1126,
      "ው": 1127,
      "ዕ": 1128,
      "ዘ": 1129,
      "ዜ": 1130,
      "ዝ": 1131,
      "ዞ": 1132,
      "የ": 1133,
      "ያ": 1134,
      "ይ": 1135,
      "ዮ": 1136,
      "ደ": 1137,
      "ዱ": 1138,
      "ዳ": 1139,
      "ዴ": 1140,
      "ድ": 1141,
      "ጃ": 1142,
      "ገ": 1143,
      "ጉ": 1144,
      "ጌ": 1145,
      "ግ": 1146,
      "ጎ": 1147,
      "ጠ": 1148,
      "ጣ": 1149,
      "ጦ": 1150,
      "ጧ": 1151,
      "ጪ": 1152,
      "ጫ": 1153,
      "ጵ": 1154,
      "ፅ": 1155,
      "ፋ": 1156,
      "ፍ": 1157,
      "ፓ": 1158,
      "ᏹ": 1159,
      "ᐃ": 1160,
      "ᐊ": 1161,
      "ᐋ": 1162,
      "ᐎ": 1163,
      "ᐠ": 1164,
      "ᐢ": 1165,
      "ᐧ": 1166,
      "ᐯ": 1167,
      "ᐸ": 1168,
      "ᑎ": 1169,
      "ᑑ": 1170,
      "ᑕ": 1171,
      "ᑦ": 1172,
      "ᑫ": 1173,
      "ᑭ": 1174,
      "ᑯ": 1175,
      "ᒃ": 1176,
      "ᒍ": 1177,
      "ᒐ": 1178,
      "ᒑ": 1179,
      "ᒡ": 1180,
      "ᒧ": 1181,
      "ᒪ": 1182,
      "ᓂ": 1183,
      "ᓄ": 1184,
      "ᓇ": 1185,
      "ᓈ": 1186,
      "ᓐ": 1187,
      "ᓕ": 1188,
      "ᓗ": 1189,
      "ᓚ": 1190,
      "ᓪ": 1191,
      "ᓱ": 1192,
      "ᓴ": 1193,
      "ᔑ": 1194,
      "ᔨ": 1195,
      "ᔪ": 1196,
      "ᕆ": 1197,
      "ᕋ": 1198,
      "ᕐ": 1199,
      "ᕕ": 1200,
      "ᕙ": 1201,
      "ᕿ": 1202,
      "ᖁ": 1203,
      "ᖅ": 1204,
      "ᖕ": 1205,
      "ᖽ": 1206,
      "ᖿ": 1207,
      "ᚠ": 1208,
      "ᚢ": 1209,
      "ᚱ": 1210,
      "ᚴ": 1211,
      "ᚼ": 1212,
      "ᚾ": 1213,
      "ᛅ": 1214,
      "ᛏ": 1215,
      "ᛚ": 1216,
      "ᛦ": 1217,
      "᛬": 1218,
      "ᜢ": 1219,
      "ᜨ": 1220,
      "ᜱ": 1221,
      "ក": 1222,
      "ខ": 1223,
      "គ": 1224,
      "ង": 1225,
      "ច": 1226,
      "ជ": 1227,
      "ដ": 1228,
      "ឋ": 1229,
      "ណ": 1230,
      "ត": 1231,
      "ថ": 1232,
      "ទ": 1233,
      "ធ": 1234,
      "ន": 1235,
      "ប": 1236,
      "ផ": 1237,
      "ព": 1238,
      "ភ": 1239,
      "ម": 1240,
      "យ": 1241,
      "រ": 1242,
      "ល": 1243,
      "វ": 1244,
      "ស": 1245,
      "ហ": 1246,
      "អ": 1247,
      "ᠠ": 1248,
      "ᠡ": 1249,
      "ᠢ": 1250,
      "ᠣ": 1251,
      "ᠤ": 1252,
      "ᠦ": 1253,
      "ᠨ": 1254,
      "ᠪ": 1255,
      "ᠬ": 1256,
      "ᠭ": 1257,
      "ᠮ": 1258,
      "ᠯ": 1259,
      "ᠰ": 1260,
      "ᠲ": 1261,
      "ᠳ": 1262,
      "ᠶ": 1263,
      "ᠷ": 1264,
      "ᠻ": 1265,
      "ᡝ": 1266,
      "ᡠ": 1267,
      "ᡤ": 1268,
      "ᡩ": 1269,
      "ᡳ": 1270,
      "ᡵ": 1271,
      "ᨄ": 1272,
      "ᨅ": 1273,
      "ᨈ": 1274,
      "ᨒ": 1275,
      "ᨔ": 1276,
      "ᮊ": 1277,
      "ᮒ": 1278,
      "ᮔ": 1279,
      "ᮕ": 1280,
      "ᮘ": 1281,
      "ᮙ": 1282,
      "ᮝ": 1283,
      "ᮞ": 1284,
      "ᴇ": 1285,
      "ᴠ": 1286,
      "ᵏ": 1287,
      "ᵑ": 1288,
      "ᶇ": 1289,
      "ỻ": 1290,
      "᾽": 1291,
      "᾿": 1292,
      " ": 1293,
      " ": 1294,
      " ": 1295,
      " ": 1296,
      "​": 1297,
      "‌": 1298,
      "‍": 1299,
      "‎": 1300,
      "‏": 1301,
      "‐": 1302,
      "‑": 1303,
      "‒": 1304,
      "–": 1305,
      "—": 1306,
      "―": 1307,
      "‘": 1308,
      "’": 1309,
      "‚": 1310,
      "“": 1311,
      "”": 1312,
      "„": 1313,
      "‟": 1314,
      "†": 1315,
      "‡": 1316,
      "•": 1317,
      "․": 1318,
      "‥": 1319,
      "…": 1320,
      " ": 1321,
      "‫": 1322,
      " ": 1323,
      "‰": 1324,
      "′": 1325,
      "″": 1326,
      "‹": 1327,
      "›": 1328,
      "‼": 1329,
      "‽": 1330,
      "⁃": 1331,
      "⁄": 1332,
      "⁇": 1333,
      "⁑": 1334,
      "⁠": 1335,
      "⁡": 1336,
      "⁣": 1337,
      "⁦": 1338,
      "⁧": 1339,
      "⁨": 1340,
      "⁩": 1341,
      "⁰": 1342,
      "ⁱ": 1343,
      "ⁿ": 1344,
      "₀": 1345,
      "₁": 1346,
      "₂": 1347,
      "₃": 1348,
      "ₐ": 1349,
      "ₓ": 1350,
      "₠": 1351,
      "₡": 1352,
      "₤": 1353,
      "₦": 1354,
      "₩": 1355,
      "₪": 1356,
      "€": 1357,
      "₱": 1358,
      "₹": 1359,
      "₺": 1360,
      "₽": 1361,
      "ℂ": 1362,
      "℃": 1363,
      "℅": 1364,
      "℈": 1365,
      "ℓ": 1366,
      "ℕ": 1367,
      "№": 1368,
      "℗": 1369,
      "ℛ": 1370,
      "ℝ": 1371,
      "℞": 1372,
      "℠": 1373,
      "™": 1374,
      "ℤ": 1375,
      "℥": 1376,
      "ℨ": 1377,
      "ℳ": 1378,
      "⅓": 1379,
      "⅔": 1380,
      "⅛": 1381,
      "⅝": 1382,
      "ⅱ": 1383,
      "←": 1384,
      "↑": 1385,
      "→": 1386,
      "↓": 1387,
      "↔": 1388,
      "↤": 1389,
      "↵": 1390,
      "↻": 1391,
      "⇄": 1392,
      "⇌": 1393,
      "⇐": 1394,
      "⇒": 1395,
      "⇔": 1396,
      "⇧": 1397,
      "⇲": 1398,
      "⇳": 1399,
      "∀": 1400,
      "∂": 1401,
      "∃": 1402,
      "∅": 1403,
      "∆": 1404,
      "∇": 1405,
      "∈": 1406,
      "∎": 1407,
      "∑": 1408,
      "−": 1409,
      "∓": 1410,
      "∕": 1411,
      "∗": 1412,
      "∘": 1413,
      "∙": 1414,
      "√": 1415,
      "∞": 1416,
      "∠": 1417,
      "∥": 1418,
      "∧": 1419,
      "∨": 1420,
      "∩": 1421,
      "∪": 1422,
      "∫": 1423,
      "∬": 1424,
      "∴": 1425,
      "∼": 1426,
      "≃": 1427,
      "≈": 1428,
      "≡": 1429,
      "≤": 1430,
      "≥": 1431,
      "≪": 1432,
      "≫": 1433,
      "⊂": 1434,
      "⊆": 1435,
      "⊕": 1436,
      "⊖": 1437,
      "⊙": 1438,
      "⊥": 1439,
      "⋅": 1440,
      "⋆": 1441,
      "⌀": 1442,
      "⌓": 1443,
      "⌘": 1444,
      "⌥": 1445,
      "⍾": 1446,
      "⎉": 1447,
      "⎖": 1448,
      "⎘": 1449,
      "␇": 1450,
      "ⓐ": 1451,
      "ⓜ": 1452,
      "┌": 1453,
      "┐": 1454,
      "■": 1455,
      "□": 1456,
      "▪": 1457,
      "△": 1458,
      "▽": 1459,
      "○": 1460,
      "●": 1461,
      "◤": 1462,
      "◥": 1463,
      "◦": 1464,
      "☀": 1465,
      "☃": 1466,
      "☄": 1467,
      "★": 1468,
      "☆": 1469,
      "☉": 1470,
      "☊": 1471,
      "☋": 1472,
      "☐": 1473,
      "☑": 1474,
      "☒": 1475,
      "☙": 1476,
      "☰": 1477,
      "☷": 1478,
      "♀": 1479,
      "♁": 1480,
      "♂": 1481,
      "♈": 1482,
      "♋": 1483,
      "♎": 1484,
      "♑": 1485,
      "♖": 1486,
      "♛": 1487,
      "♞": 1488,
      "♡": 1489,
      "♥": 1490,
      "♦": 1491,
      "♭": 1492,
      "♯": 1493,
      "♿": 1494,
      "⚖": 1495,
      "✅": 1496,
      "✓": 1497,
      "✝": 1498,
      "✪": 1499,
      "✾": 1500,
      "❖": 1501,
      "❤": 1502,
      "❪": 1503,
      "❫": 1504,
      "➖": 1505,
      "➞": 1506,
      "➵": 1507,
      "⟨": 1508,
      "⟩": 1509,
      "⟪": 1510,
      "⟫": 1511,
      "⟶": 1512,
      "⟹": 1513,
      "⠀": 1514,
      "⠂": 1515,
      "⠨": 1516,
      "⠲": 1517,
      "⤓": 1518,
      "⦁": 1519,
      "⦵": 1520,
      "⨎": 1521,
      "⨯": 1522,
      "⩱": 1523,
      "⩲": 1524,
      "⬅": 1525,
      "⬆": 1526,
      "⭐": 1527,
      "ⱃ": 1528,
      "ⱈ": 1529,
      "ⲁ": 1530,
      "ⲃ": 1531,
      "ⲅ": 1532,
      "ⲇ": 1533,
      "ⲉ": 1534,
      "ⲏ": 1535,
      "ⲓ": 1536,
      "ⲕ": 1537,
      "ⲙ": 1538,
      "ⲛ": 1539,
      "ⲟ": 1540,
      "ⲡ": 1541,
      "ⲣ": 1542,
      "ⲥ": 1543,
      "ⲧ": 1544,
      "ⲩ": 1545,
      "ⲫ": 1546,
      "ⲭ": 1547,
      "ⲱ": 1548,
      "ⴰ": 1549,
      "ⴱ": 1550,
      "ⴳ": 1551,
      "ⴷ": 1552,
      "ⴸ": 1553,
      "ⴹ": 1554,
      "ⴻ": 1555,
      "ⴼ": 1556,
      "ⴽ": 1557,
      "ⵀ": 1558,
      "ⵃ": 1559,
      "ⵄ": 1560,
      "ⵅ": 1561,
      "ⵇ": 1562,
      "ⵉ": 1563,
      "ⵊ": 1564,
      "ⵍ": 1565,
      "ⵎ": 1566,
      "ⵏ": 1567,
      "ⵓ": 1568,
      "ⵔ": 1569,
      "ⵕ": 1570,
      "ⵖ": 1571,
      "ⵙ": 1572,
      "ⵚ": 1573,
      "ⵛ": 1574,
      "ⵜ": 1575,
      "ⵝ": 1576,
      "ⵟ": 1577,
      "ⵡ": 1578,
      "ⵢ": 1579,
      "ⵣ": 1580,
      "ⵯ": 1581,
      "⸙": 1582,
      "⸮": 1583,
      "⸵": 1584,
      "　": 1585,
      "、": 1586,
      "。": 1587,
      "々": 1588,
      "〆": 1589,
      "〈": 1590,
      "〉": 1591,
      "《": 1592,
      "》": 1593,
      "「": 1594,
      "」": 1595,
      "『": 1596,
      "』": 1597,
      "【": 1598,
      "】": 1599,
      "〜": 1600,
      "あ": 1601,
      "ぃ": 1602,
      "い": 1603,
      "う": 1604,
      "え": 1605,
      "お": 1606,
      "か": 1607,
      "き": 1608,
      "く": 1609,
      "け": 1610,
      "こ": 1611,
      "さ": 1612,
      "し": 1613,
      "す": 1614,
      "せ": 1615,
      "そ": 1616,
      "た": 1617,
      "ち": 1618,
      "っ": 1619,
      "つ": 1620,
      "て": 1621,
      "と": 1622,
      "な": 1623,
      "に": 1624,
      "ぬ": 1625,
      "ね": 1626,
      "の": 1627,
      "は": 1628,
      "ひ": 1629,
      "ふ": 1630,
      "へ": 1631,
      "ほ": 1632,
      "ま": 1633,
      "み": 1634,
      "む": 1635,
      "め": 1636,
      "も": 1637,
      "ゃ": 1638,
      "や": 1639,
      "ゅ": 1640,
      "ゆ": 1641,
      "ょ": 1642,
      "よ": 1643,
      "ら": 1644,
      "り": 1645,
      "る": 1646,
      "れ": 1647,
      "ろ": 1648,
      "わ": 1649,
      "を": 1650,
      "ん": 1651,
      "ァ": 1652,
      "ア": 1653,
      "ィ": 1654,
      "イ": 1655,
      "ゥ": 1656,
      "ウ": 1657,
      "ェ": 1658,
      "エ": 1659,
      "ォ": 1660,
      "オ": 1661,
      "カ": 1662,
      "キ": 1663,
      "ク": 1664,
      "ケ": 1665,
      "コ": 1666,
      "サ": 1667,
      "シ": 1668,
      "ス": 1669,
      "セ": 1670,
      "ソ": 1671,
      "タ": 1672,
      "チ": 1673,
      "ッ": 1674,
      "ツ": 1675,
      "テ": 1676,
      "ト": 1677,
      "ナ": 1678,
      "ニ": 1679,
      "ヌ": 1680,
      "ネ": 1681,
      "ノ": 1682,
      "ハ": 1683,
      "ヒ": 1684,
      "フ": 1685,
      "ヘ": 1686,
      "ホ": 1687,
      "マ": 1688,
      "ミ": 1689,
      "ム": 1690,
      "メ": 1691,
      "モ": 1692,
      "ャ": 1693,
      "ヤ": 1694,
      "ュ": 1695,
      "ユ": 1696,
      "ョ": 1697,
      "ヨ": 1698,
      "ラ": 1699,
      "リ": 1700,
      "ル": 1701,
      "レ": 1702,
      "ロ": 1703,
      "ヮ": 1704,
      "ワ": 1705,
      "ン": 1706,
      "ヶ": 1707,
      "・": 1708,
      "ー": 1709,
      "ㄋ": 1710,
      "ㄴ": 1711,
      "ㄷ": 1712,
      "ㅂ": 1713,
      "ㅅ": 1714,
      "ㅇ": 1715,
      "ㅤ": 1716,
      "㈜": 1717,
      "一": 1718,
      "丁": 1719,
      "七": 1720,
      "万": 1721,
      "丈": 1722,
      "三": 1723,
      "上": 1724,
      "下": 1725,
      "不": 1726,
      "与": 1727,
      "丑": 1728,
      "专": 1729,
      "世": 1730,
      "丘": 1731,
      "业": 1732,
      "东": 1733,
      "丝": 1734,
      "丞": 1735,
      "両": 1736,
      "两": 1737,
      "严": 1738,
      "个": 1739,
      "中": 1740,
      "丰": 1741,
      "丸": 1742,
      "丹": 1743,
      "为": 1744,
      "主": 1745,
      "丽": 1746,
      "举": 1747,
      "乃": 1748,
      "久": 1749,
      "义": 1750,
      "之": 1751,
      "乌": 1752,
      "乍": 1753,
      "乐": 1754,
      "乒": 1755,
      "乗": 1756,
      "乙": 1757,
      "九": 1758,
      "也": 1759,
      "习": 1760,
      "乡": 1761,
      "书": 1762,
      "乩": 1763,
      "乱": 1764,
      "乳": 1765,
      "乾": 1766,
      "亀": 1767,
      "亂": 1768,
      "了": 1769,
      "予": 1770,
      "争": 1771,
      "事": 1772,
      "二": 1773,
      "于": 1774,
      "亏": 1775,
      "云": 1776,
      "互": 1777,
      "五": 1778,
      "井": 1779,
      "亘": 1780,
      "亚": 1781,
      "亜": 1782,
      "亞": 1783,
      "亡": 1784,
      "交": 1785,
      "亥": 1786,
      "亦": 1787,
      "产": 1788,
      "亨": 1789,
      "京": 1790,
      "亭": 1791,
      "亮": 1792,
      "人": 1793,
      "亿": 1794,
      "什": 1795,
      "仁": 1796,
      "今": 1797,
      "介": 1798,
      "从": 1799,
      "仏": 1800,
      "仓": 1801,
      "仔": 1802,
      "他": 1803,
      "付": 1804,
      "仙": 1805,
      "代": 1806,
      "令": 1807,
      "以": 1808,
      "仪": 1809,
      "仮": 1810,
      "仰": 1811,
      "仲": 1812,
      "件": 1813,
      "任": 1814,
      "份": 1815,
      "企": 1816,
      "伊": 1817,
      "伏": 1818,
      "伐": 1819,
      "休": 1820,
      "众": 1821,
      "优": 1822,
      "伙": 1823,
      "会": 1824,
      "伝": 1825,
      "伟": 1826,
      "传": 1827,
      "伤": 1828,
      "伦": 1829,
      "伪": 1830,
      "伯": 1831,
      "伴": 1832,
      "伶": 1833,
      "伸": 1834,
      "似": 1835,
      "伽": 1836,
      "佇": 1837,
      "位": 1838,
      "住": 1839,
      "佐": 1840,
      "佑": 1841,
      "体": 1842,
      "何": 1843,
      "余": 1844,
      "佛": 1845,
      "作": 1846,
      "你": 1847,
      "佩": 1848,
      "佬": 1849,
      "佳": 1850,
      "使": 1851,
      "侃": 1852,
      "來": 1853,
      "例": 1854,
      "依": 1855,
      "侠": 1856,
      "侨": 1857,
      "侯": 1858,
      "便": 1859,
      "係": 1860,
      "促": 1861,
      "俄": 1862,
      "俊": 1863,
      "俗": 1864,
      "保": 1865,
      "信": 1866,
      "修": 1867,
      "俱": 1868,
      "俵": 1869,
      "俺": 1870,
      "倉": 1871,
      "個": 1872,
      "倍": 1873,
      "倖": 1874,
      "候": 1875,
      "倚": 1876,
      "借": 1877,
      "倪": 1878,
      "倫": 1879,
      "倭": 1880,
      "值": 1881,
      "假": 1882,
      "偉": 1883,
      "偏": 1884,
      "做": 1885,
      "健": 1886,
      "側": 1887,
      "偽": 1888,
      "傅": 1889,
      "傑": 1890,
      "備": 1891,
      "傲": 1892,
      "傳": 1893,
      "債": 1894,
      "傷": 1895,
      "傻": 1896,
      "僉": 1897,
      "像": 1898,
      "僑": 1899,
      "僕": 1900,
      "儀": 1901,
      "億": 1902,
      "儉": 1903,
      "儒": 1904,
      "優": 1905,
      "儺": 1906,
      "兀": 1907,
      "允": 1908,
      "元": 1909,
      "兄": 1910,
      "充": 1911,
      "兆": 1912,
      "先": 1913,
      "光": 1914,
      "克": 1915,
      "兌": 1916,
      "免": 1917,
      "兎": 1918,
      "児": 1919,
      "兒": 1920,
      "党": 1921,
      "入": 1922,
      "內": 1923,
      "全": 1924,
      "兩": 1925,
      "八": 1926,
      "公": 1927,
      "六": 1928,
      "兰": 1929,
      "共": 1930,
      "关": 1931,
      "兴": 1932,
      "兵": 1933,
      "其": 1934,
      "具": 1935,
      "典": 1936,
      "养": 1937,
      "兼": 1938,
      "兽": 1939,
      "冀": 1940,
      "内": 1941,
      "円": 1942,
      "冊": 1943,
      "冒": 1944,
      "写": 1945,
      "军": 1946,
      "农": 1947,
      "冠": 1948,
      "冤": 1949,
      "冥": 1950,
      "冬": 1951,
      "冰": 1952,
      "冲": 1953,
      "决": 1954,
      "冴": 1955,
      "冶": 1956,
      "冷": 1957,
      "凉": 1958,
      "凌": 1959,
      "凛": 1960,
      "凜": 1961,
      "凡": 1962,
      "凤": 1963,
      "処": 1964,
      "凪": 1965,
      "凯": 1966,
      "凰": 1967,
      "凱": 1968,
      "出": 1969,
      "击": 1970,
      "刀": 1971,
      "刃": 1972,
      "分": 1973,
      "切": 1974,
      "刊": 1975,
      "划": 1976,
      "列": 1977,
      "刘": 1978,
      "则": 1979,
      "刚": 1980,
      "创": 1981,
      "初": 1982,
      "判": 1983,
      "別": 1984,
      "利": 1985,
      "别": 1986,
      "刮": 1987,
      "制": 1988,
      "刷": 1989,
      "刺": 1990,
      "刻": 1991,
      "剃": 1992,
      "則": 1993,
      "前": 1994,
      "剑": 1995,
      "剛": 1996,
      "剝": 1997,
      "剣": 1998,
      "剥": 1999,
      "剧": 2000,
      "副": 2001,
      "割": 2002,
      "劃": 2003,
      "劇": 2004,
      "劉": 2005,
      "力": 2006,
      "办": 2007,
      "功": 2008,
      "加": 2009,
      "务": 2010,
      "动": 2011,
      "助": 2012,
      "努": 2013,
      "劲": 2014,
      "劳": 2015,
      "势": 2016,
      "勅": 2017,
      "勇": 2018,
      "勉": 2019,
      "勋": 2020,
      "勒": 2021,
      "動": 2022,
      "務": 2023,
      "勝": 2024,
      "勢": 2025,
      "勤": 2026,
      "勲": 2027,
      "勳": 2028,
      "勺": 2029,
      "勾": 2030,
      "匁": 2031,
      "匂": 2032,
      "包": 2033,
      "匈": 2034,
      "化": 2035,
      "北": 2036,
      "匜": 2037,
      "匠": 2038,
      "匡": 2039,
      "区": 2040,
      "医": 2041,
      "區": 2042,
      "十": 2043,
      "千": 2044,
      "升": 2045,
      "半": 2046,
      "卍": 2047,
      "华": 2048,
      "协": 2049,
      "卐": 2050,
      "卓": 2051,
      "協": 2052,
      "单": 2053,
      "南": 2054,
      "博": 2055,
      "占": 2056,
      "卡": 2057,
      "卢": 2058,
      "卣": 2059,
      "卫": 2060,
      "卯": 2061,
      "印": 2062,
      "危": 2063,
      "即": 2064,
      "却": 2065,
      "卵": 2066,
      "卷": 2067,
      "卿": 2068,
      "厂": 2069,
      "厄": 2070,
      "历": 2071,
      "厚": 2072,
      "原": 2073,
      "厢": 2074,
      "厨": 2075,
      "去": 2076,
      "参": 2077,
      "參": 2078,
      "叉": 2079,
      "及": 2080,
      "友": 2081,
      "双": 2082,
      "反": 2083,
      "収": 2084,
      "发": 2085,
      "叔": 2086,
      "取": 2087,
      "受": 2088,
      "变": 2089,
      "叡": 2090,
      "叢": 2091,
      "口": 2092,
      "古": 2093,
      "句": 2094,
      "只": 2095,
      "可": 2096,
      "台": 2097,
      "叱": 2098,
      "史": 2099,
      "右": 2100,
      "叶": 2101,
      "号": 2102,
      "司": 2103,
      "各": 2104,
      "合": 2105,
      "吉": 2106,
      "同": 2107,
      "名": 2108,
      "后": 2109,
      "吏": 2110,
      "吐": 2111,
      "向": 2112,
      "吕": 2113,
      "君": 2114,
      "吞": 2115,
      "吟": 2116,
      "吳": 2117,
      "吴": 2118,
      "吹": 2119,
      "吾": 2120,
      "呀": 2121,
      "呂": 2122,
      "呈": 2123,
      "告": 2124,
      "员": 2125,
      "周": 2126,
      "呪": 2127,
      "味": 2128,
      "呼": 2129,
      "命": 2130,
      "和": 2131,
      "咫": 2132,
      "咲": 2133,
      "咸": 2134,
      "品": 2135,
      "哈": 2136,
      "哉": 2137,
      "响": 2138,
      "員": 2139,
      "哲": 2140,
      "唐": 2141,
      "唯": 2142,
      "唱": 2143,
      "商": 2144,
      "啓": 2145,
      "啟": 2146,
      "喃": 2147,
      "善": 2148,
      "喜": 2149,
      "喩": 2150,
      "喬": 2151,
      "單": 2152,
      "喵": 2153,
      "営": 2154,
      "嗣": 2155,
      "嘆": 2156,
      "嘉": 2157,
      "嘗": 2158,
      "嘘": 2159,
      "嘴": 2160,
      "噜": 2161,
      "器": 2162,
      "噶": 2163,
      "嚕": 2164,
      "嚢": 2165,
      "嚴": 2166,
      "囚": 2167,
      "四": 2168,
      "回": 2169,
      "因": 2170,
      "团": 2171,
      "団": 2172,
      "园": 2173,
      "困": 2174,
      "囲": 2175,
      "図": 2176,
      "固": 2177,
      "国": 2178,
      "图": 2179,
      "圀": 2180,
      "國": 2181,
      "圍": 2182,
      "園": 2183,
      "圓": 2184,
      "圖": 2185,
      "團": 2186,
      "土": 2187,
      "圣": 2188,
      "在": 2189,
      "圩": 2190,
      "圭": 2191,
      "地": 2192,
      "圳": 2193,
      "场": 2194,
      "址": 2195,
      "坂": 2196,
      "均": 2197,
      "坊": 2198,
      "坎": 2199,
      "坐": 2200,
      "坚": 2201,
      "坛": 2202,
      "坝": 2203,
      "坡": 2204,
      "坤": 2205,
      "坦": 2206,
      "垂": 2207,
      "型": 2208,
      "垢": 2209,
      "垣": 2210,
      "埃": 2211,
      "城": 2212,
      "域": 2213,
      "執": 2214,
      "培": 2215,
      "基": 2216,
      "埼": 2217,
      "堀": 2218,
      "堂": 2219,
      "堅": 2220,
      "堆": 2221,
      "堡": 2222,
      "堤": 2223,
      "堯": 2224,
      "報": 2225,
      "場": 2226,
      "塁": 2227,
      "塊": 2228,
      "塔": 2229,
      "塘": 2230,
      "塚": 2231,
      "塡": 2232,
      "塩": 2233,
      "填": 2234,
      "塾": 2235,
      "墀": 2236,
      "境": 2237,
      "増": 2238,
      "墙": 2239,
      "墟": 2240,
      "墨": 2241,
      "壇": 2242,
      "壩": 2243,
      "士": 2244,
      "声": 2245,
      "壱": 2246,
      "売": 2247,
      "壶": 2248,
      "壺": 2249,
      "壽": 2250,
      "変": 2251,
      "复": 2252,
      "夏": 2253,
      "夕": 2254,
      "外": 2255,
      "多": 2256,
      "夜": 2257,
      "夢": 2258,
      "大": 2259,
      "天": 2260,
      "太": 2261,
      "夫": 2262,
      "央": 2263,
      "失": 2264,
      "头": 2265,
      "夷": 2266,
      "夺": 2267,
      "夾": 2268,
      "奄": 2269,
      "奇": 2270,
      "奈": 2271,
      "奉": 2272,
      "奎": 2273,
      "奏": 2274,
      "契": 2275,
      "奔": 2276,
      "奕": 2277,
      "奖": 2278,
      "套": 2279,
      "奥": 2280,
      "奧": 2281,
      "女": 2282,
      "奴": 2283,
      "她": 2284,
      "好": 2285,
      "如": 2286,
      "妃": 2287,
      "妇": 2288,
      "妌": 2289,
      "妓": 2290,
      "妖": 2291,
      "妙": 2292,
      "妮": 2293,
      "妲": 2294,
      "妻": 2295,
      "姉": 2296,
      "姊": 2297,
      "始": 2298,
      "姑": 2299,
      "姒": 2300,
      "姓": 2301,
      "委": 2302,
      "姚": 2303,
      "姜": 2304,
      "姫": 2305,
      "姬": 2306,
      "姿": 2307,
      "威": 2308,
      "娃": 2309,
      "娘": 2310,
      "娜": 2311,
      "娟": 2312,
      "娥": 2313,
      "娩": 2314,
      "娱": 2315,
      "娼": 2316,
      "婆": 2317,
      "婢": 2318,
      "婦": 2319,
      "媒": 2320,
      "媛": 2321,
      "嫁": 2322,
      "嫊": 2323,
      "嫔": 2324,
      "嫦": 2325,
      "嬈": 2326,
      "嬌": 2327,
      "嬕": 2328,
      "嬴": 2329,
      "子": 2330,
      "孔": 2331,
      "字": 2332,
      "存": 2333,
      "孙": 2334,
      "孚": 2335,
      "孜": 2336,
      "孝": 2337,
      "孟": 2338,
      "季": 2339,
      "孤": 2340,
      "学": 2341,
      "孩": 2342,
      "孫": 2343,
      "學": 2344,
      "孽": 2345,
      "宁": 2346,
      "宅": 2347,
      "宇": 2348,
      "守": 2349,
      "安": 2350,
      "宋": 2351,
      "完": 2352,
      "宏": 2353,
      "宗": 2354,
      "官": 2355,
      "宙": 2356,
      "定": 2357,
      "宛": 2358,
      "宜": 2359,
      "宝": 2360,
      "实": 2361,
      "実": 2362,
      "审": 2363,
      "客": 2364,
      "宣": 2365,
      "室": 2366,
      "宦": 2367,
      "宪": 2368,
      "宫": 2369,
      "宮": 2370,
      "宰": 2371,
      "害": 2372,
      "家": 2373,
      "容": 2374,
      "宼": 2375,
      "宾": 2376,
      "宿": 2377,
      "寂": 2378,
      "寅": 2379,
      "密": 2380,
      "寇": 2381,
      "富": 2382,
      "寒": 2383,
      "寓": 2384,
      "寛": 2385,
      "寝": 2386,
      "察": 2387,
      "實": 2388,
      "寧": 2389,
      "寨": 2390,
      "寫": 2391,
      "寬": 2392,
      "寮": 2393,
      "寰": 2394,
      "寳": 2395,
      "寶": 2396,
      "对": 2397,
      "寺": 2398,
      "寻": 2399,
      "导": 2400,
      "対": 2401,
      "寿": 2402,
      "封": 2403,
      "専": 2404,
      "射": 2405,
      "将": 2406,
      "將": 2407,
      "專": 2408,
      "尊": 2409,
      "尋": 2410,
      "對": 2411,
      "導": 2412,
      "小": 2413,
      "少": 2414,
      "尔": 2415,
      "尕": 2416,
      "尘": 2417,
      "尚": 2418,
      "尝": 2419,
      "就": 2420,
      "尹": 2421,
      "尻": 2422,
      "尼": 2423,
      "尾": 2424,
      "局": 2425,
      "居": 2426,
      "屆": 2427,
      "届": 2428,
      "屋": 2429,
      "屏": 2430,
      "展": 2431,
      "属": 2432,
      "屠": 2433,
      "屬": 2434,
      "屯": 2435,
      "山": 2436,
      "屹": 2437,
      "岁": 2438,
      "岐": 2439,
      "岡": 2440,
      "岩": 2441,
      "岫": 2442,
      "岬": 2443,
      "岭": 2444,
      "岱": 2445,
      "岳": 2446,
      "岸": 2447,
      "岿": 2448,
      "峡": 2449,
      "峨": 2450,
      "峰": 2451,
      "島": 2452,
      "峻": 2453,
      "峽": 2454,
      "崇": 2455,
      "崎": 2456,
      "崑": 2457,
      "崔": 2458,
      "崖": 2459,
      "崙": 2460,
      "嵆": 2461,
      "嵐": 2462,
      "嵩": 2463,
      "嵯": 2464,
      "嶋": 2465,
      "嶺": 2466,
      "嶽": 2467,
      "巌": 2468,
      "巖": 2469,
      "川": 2470,
      "州": 2471,
      "巡": 2472,
      "巣": 2473,
      "工": 2474,
      "左": 2475,
      "巧": 2476,
      "巩": 2477,
      "差": 2478,
      "己": 2479,
      "巳": 2480,
      "巴": 2481,
      "巻": 2482,
      "币": 2483,
      "市": 2484,
      "布": 2485,
      "帅": 2486,
      "帆": 2487,
      "师": 2488,
      "希": 2489,
      "帕": 2490,
      "帛": 2491,
      "帜": 2492,
      "帝": 2493,
      "帥": 2494,
      "師": 2495,
      "席": 2496,
      "帯": 2497,
      "帰": 2498,
      "常": 2499,
      "幕": 2500,
      "幗": 2501,
      "幟": 2502,
      "幡": 2503,
      "干": 2504,
      "平": 2505,
      "年": 2506,
      "幸": 2507,
      "幹": 2508,
      "幻": 2509,
      "幽": 2510,
      "幾": 2511,
      "广": 2512,
      "広": 2513,
      "庄": 2514,
      "庆": 2515,
      "序": 2516,
      "库": 2517,
      "应": 2518,
      "店": 2519,
      "庙": 2520,
      "庚": 2521,
      "府": 2522,
      "度": 2523,
      "座": 2524,
      "庭": 2525,
      "庵": 2526,
      "庶": 2527,
      "康": 2528,
      "庸": 2529,
      "廃": 2530,
      "廉": 2531,
      "廖": 2532,
      "廟": 2533,
      "廣": 2534,
      "延": 2535,
      "廷": 2536,
      "建": 2537,
      "廻": 2538,
      "开": 2539,
      "异": 2540,
      "弄": 2541,
      "式": 2542,
      "弐": 2543,
      "弓": 2544,
      "引": 2545,
      "弖": 2546,
      "弘": 2547,
      "弟": 2548,
      "张": 2549,
      "弥": 2550,
      "弱": 2551,
      "張": 2552,
      "強": 2553,
      "强": 2554,
      "弾": 2555,
      "彊": 2556,
      "彌": 2557,
      "归": 2558,
      "当": 2559,
      "彗": 2560,
      "彙": 2561,
      "彝": 2562,
      "彡": 2563,
      "形": 2564,
      "彥": 2565,
      "彦": 2566,
      "彩": 2567,
      "彬": 2568,
      "彭": 2569,
      "彰": 2570,
      "影": 2571,
      "役": 2572,
      "彻": 2573,
      "彼": 2574,
      "往": 2575,
      "征": 2576,
      "待": 2577,
      "律": 2578,
      "後": 2579,
      "徐": 2580,
      "得": 2581,
      "從": 2582,
      "御": 2583,
      "復": 2584,
      "循": 2585,
      "微": 2586,
      "徳": 2587,
      "德": 2588,
      "徹": 2589,
      "徽": 2590,
      "心": 2591,
      "必": 2592,
      "忆": 2593,
      "忌": 2594,
      "忍": 2595,
      "志": 2596,
      "忘": 2597,
      "応": 2598,
      "忠": 2599,
      "快": 2600,
      "念": 2601,
      "怀": 2602,
      "怒": 2603,
      "怕": 2604,
      "怖": 2605,
      "思": 2606,
      "怡": 2607,
      "急": 2608,
      "性": 2609,
      "怪": 2610,
      "总": 2611,
      "恆": 2612,
      "恋": 2613,
      "恐": 2614,
      "恒": 2615,
      "恕": 2616,
      "恥": 2617,
      "恩": 2618,
      "恬": 2619,
      "恭": 2620,
      "息": 2621,
      "恵": 2622,
      "悌": 2623,
      "悔": 2624,
      "悟": 2625,
      "悠": 2626,
      "患": 2627,
      "悦": 2628,
      "悪": 2629,
      "悲": 2630,
      "情": 2631,
      "惑": 2632,
      "惟": 2633,
      "惠": 2634,
      "惡": 2635,
      "惣": 2636,
      "惧": 2637,
      "惨": 2638,
      "想": 2639,
      "愈": 2640,
      "意": 2641,
      "愛": 2642,
      "感": 2643,
      "慈": 2644,
      "態": 2645,
      "慎": 2646,
      "慕": 2647,
      "慘": 2648,
      "慧": 2649,
      "慰": 2650,
      "慶": 2651,
      "憂": 2652,
      "憤": 2653,
      "憲": 2654,
      "應": 2655,
      "懋": 2656,
      "懷": 2657,
      "懸": 2658,
      "懿": 2659,
      "戆": 2660,
      "戈": 2661,
      "戎": 2662,
      "戏": 2663,
      "成": 2664,
      "我": 2665,
      "戒": 2666,
      "或": 2667,
      "战": 2668,
      "戦": 2669,
      "戰": 2670,
      "戴": 2671,
      "戶": 2672,
      "户": 2673,
      "戸": 2674,
      "房": 2675,
      "所": 2676,
      "扇": 2677,
      "扈": 2678,
      "手": 2679,
      "才": 2680,
      "扎": 2681,
      "打": 2682,
      "払": 2683,
      "执": 2684,
      "扶": 2685,
      "批": 2686,
      "找": 2687,
      "承": 2688,
      "技": 2689,
      "抄": 2690,
      "抑": 2691,
      "抓": 2692,
      "投": 2693,
      "抗": 2694,
      "折": 2695,
      "抜": 2696,
      "护": 2697,
      "抹": 2698,
      "拂": 2699,
      "拆": 2700,
      "拉": 2701,
      "拌": 2702,
      "拓": 2703,
      "拖": 2704,
      "招": 2705,
      "拟": 2706,
      "拠": 2707,
      "拨": 2708,
      "拱": 2709,
      "拳": 2710,
      "拽": 2711,
      "拾": 2712,
      "拿": 2713,
      "持": 2714,
      "挂": 2715,
      "指": 2716,
      "按": 2717,
      "挪": 2718,
      "振": 2719,
      "挺": 2720,
      "捐": 2721,
      "据": 2722,
      "捷": 2723,
      "授": 2724,
      "掌": 2725,
      "掛": 2726,
      "採": 2727,
      "探": 2728,
      "接": 2729,
      "控": 2730,
      "推": 2731,
      "措": 2732,
      "揆": 2733,
      "提": 2734,
      "揚": 2735,
      "揭": 2736,
      "揮": 2737,
      "援": 2738,
      "摩": 2739,
      "摸": 2740,
      "撈": 2741,
      "撒": 2742,
      "撥": 2743,
      "播": 2744,
      "撮": 2745,
      "撰": 2746,
      "操": 2747,
      "擎": 2748,
      "擺": 2749,
      "攘": 2750,
      "攝": 2751,
      "支": 2752,
      "收": 2753,
      "改": 2754,
      "攻": 2755,
      "放": 2756,
      "政": 2757,
      "故": 2758,
      "敎": 2759,
      "敏": 2760,
      "救": 2761,
      "教": 2762,
      "敢": 2763,
      "散": 2764,
      "敦": 2765,
      "敬": 2766,
      "数": 2767,
      "整": 2768,
      "敷": 2769,
      "數": 2770,
      "文": 2771,
      "斉": 2772,
      "斌": 2773,
      "斎": 2774,
      "斐": 2775,
      "斑": 2776,
      "斗": 2777,
      "料": 2778,
      "斜": 2779,
      "斝": 2780,
      "斬": 2781,
      "斯": 2782,
      "新": 2783,
      "方": 2784,
      "於": 2785,
      "施": 2786,
      "旂": 2787,
      "旅": 2788,
      "族": 2789,
      "无": 2790,
      "日": 2791,
      "旦": 2792,
      "旧": 2793,
      "早": 2794,
      "旭": 2795,
      "时": 2796,
      "旷": 2797,
      "昂": 2798,
      "昆": 2799,
      "昇": 2800,
      "昊": 2801,
      "昌": 2802,
      "明": 2803,
      "昏": 2804,
      "易": 2805,
      "昔": 2806,
      "昙": 2807,
      "星": 2808,
      "映": 2809,
      "春": 2810,
      "昧": 2811,
      "昭": 2812,
      "是": 2813,
      "昼": 2814,
      "显": 2815,
      "時": 2816,
      "晃": 2817,
      "晋": 2818,
      "晏": 2819,
      "晓": 2820,
      "晨": 2821,
      "晩": 2822,
      "普": 2823,
      "景": 2824,
      "晴": 2825,
      "晶": 2826,
      "智": 2827,
      "暎": 2828,
      "暗": 2829,
      "暢": 2830,
      "暮": 2831,
      "暴": 2832,
      "暾": 2833,
      "曉": 2834,
      "曙": 2835,
      "曦": 2836,
      "曲": 2837,
      "書": 2838,
      "曹": 2839,
      "曺": 2840,
      "曾": 2841,
      "替": 2842,
      "最": 2843,
      "會": 2844,
      "月": 2845,
      "有": 2846,
      "朋": 2847,
      "服": 2848,
      "朔": 2849,
      "朗": 2850,
      "望": 2851,
      "朝": 2852,
      "期": 2853,
      "朦": 2854,
      "木": 2855,
      "未": 2856,
      "末": 2857,
      "本": 2858,
      "术": 2859,
      "朱": 2860,
      "朴": 2861,
      "机": 2862,
      "杂": 2863,
      "权": 2864,
      "杉": 2865,
      "李": 2866,
      "杏": 2867,
      "材": 2868,
      "村": 2869,
      "杖": 2870,
      "杜": 2871,
      "条": 2872,
      "来": 2873,
      "杨": 2874,
      "杭": 2875,
      "杯": 2876,
      "杰": 2877,
      "東": 2878,
      "杻": 2879,
      "松": 2880,
      "板": 2881,
      "析": 2882,
      "林": 2883,
      "枚": 2884,
      "果": 2885,
      "枝": 2886,
      "枪": 2887,
      "枫": 2888,
      "架": 2889,
      "柄": 2890,
      "柊": 2891,
      "柏": 2892,
      "某": 2893,
      "染": 2894,
      "柔": 2895,
      "查": 2896,
      "柯": 2897,
      "柱": 2898,
      "柳": 2899,
      "柴": 2900,
      "査": 2901,
      "栀": 2902,
      "栄": 2903,
      "树": 2904,
      "栖": 2905,
      "栗": 2906,
      "校": 2907,
      "栢": 2908,
      "株": 2909,
      "核": 2910,
      "根": 2911,
      "格": 2912,
      "桂": 2913,
      "桃": 2914,
      "案": 2915,
      "桌": 2916,
      "桐": 2917,
      "桑": 2918,
      "桓": 2919,
      "桜": 2920,
      "档": 2921,
      "桥": 2922,
      "桶": 2923,
      "梁": 2924,
      "梅": 2925,
      "梓": 2926,
      "條": 2927,
      "梦": 2928,
      "梨": 2929,
      "梭": 2930,
      "械": 2931,
      "梶": 2932,
      "棉": 2933,
      "棋": 2934,
      "棘": 2935,
      "棠": 2936,
      "森": 2937,
      "椋": 2938,
      "植": 2939,
      "椒": 2940,
      "検": 2941,
      "椿": 2942,
      "楊": 2943,
      "楚": 2944,
      "楞": 2945,
      "楠": 2946,
      "業": 2947,
      "極": 2948,
      "楷": 2949,
      "楼": 2950,
      "楽": 2951,
      "榊": 2952,
      "榎": 2953,
      "榕": 2954,
      "榖": 2955,
      "榘": 2956,
      "榮": 2957,
      "槃": 2958,
      "構": 2959,
      "槍": 2960,
      "様": 2961,
      "槙": 2962,
      "槵": 2963,
      "樂": 2964,
      "樊": 2965,
      "樋": 2966,
      "樓": 2967,
      "標": 2968,
      "樞": 2969,
      "樟": 2970,
      "模": 2971,
      "樣": 2972,
      "権": 2973,
      "横": 2974,
      "樫": 2975,
      "樱": 2976,
      "樵": 2977,
      "樹": 2978,
      "樽": 2979,
      "橋": 2980,
      "橘": 2981,
      "橙": 2982,
      "機": 2983,
      "檀": 2984,
      "櫃": 2985,
      "櫆": 2986,
      "權": 2987,
      "欠": 2988,
      "次": 2989,
      "欢": 2990,
      "欣": 2991,
      "欧": 2992,
      "欲": 2993,
      "欽": 2994,
      "歇": 2995,
      "歌": 2996,
      "歐": 2997,
      "歓": 2998,
      "歡": 2999,
      "止": 3000,
      "正": 3001,
      "步": 3002,
      "武": 3003,
      "歩": 3004,
      "歳": 3005,
      "歴": 3006,
      "歷": 3007,
      "歸": 3008,
      "死": 3009,
      "殉": 3010,
      "殊": 3011,
      "殖": 3012,
      "段": 3013,
      "殷": 3014,
      "殺": 3015,
      "毅": 3016,
      "母": 3017,
      "毒": 3018,
      "毓": 3019,
      "比": 3020,
      "毕": 3021,
      "毛": 3022,
      "氏": 3023,
      "氐": 3024,
      "民": 3025,
      "气": 3026,
      "気": 3027,
      "氣": 3028,
      "水": 3029,
      "氷": 3030,
      "永": 3031,
      "求": 3032,
      "汉": 3033,
      "汐": 3034,
      "汕": 3035,
      "汗": 3036,
      "汝": 3037,
      "江": 3038,
      "池": 3039,
      "汤": 3040,
      "汰": 3041,
      "汲": 3042,
      "決": 3043,
      "汽": 3044,
      "汾": 3045,
      "沈": 3046,
      "沉": 3047,
      "沐": 3048,
      "沖": 3049,
      "沙": 3050,
      "沟": 3051,
      "没": 3052,
      "沢": 3053,
      "沧": 3054,
      "沪": 3055,
      "沫": 3056,
      "河": 3057,
      "油": 3058,
      "治": 3059,
      "沼": 3060,
      "沽": 3061,
      "沾": 3062,
      "況": 3063,
      "泉": 3064,
      "泊": 3065,
      "泓": 3066,
      "法": 3067,
      "泡": 3068,
      "波": 3069,
      "泥": 3070,
      "注": 3071,
      "泰": 3072,
      "泽": 3073,
      "泾": 3074,
      "洁": 3075,
      "洋": 3076,
      "洌": 3077,
      "洞": 3078,
      "津": 3079,
      "洪": 3080,
      "洲": 3081,
      "洸": 3082,
      "活": 3083,
      "派": 3084,
      "流": 3085,
      "浄": 3086,
      "浅": 3087,
      "济": 3088,
      "浏": 3089,
      "浓": 3090,
      "浙": 3091,
      "浜": 3092,
      "浦": 3093,
      "浩": 3094,
      "浪": 3095,
      "浮": 3096,
      "浴": 3097,
      "海": 3098,
      "涅": 3099,
      "消": 3100,
      "涛": 3101,
      "润": 3102,
      "涵": 3103,
      "涼": 3104,
      "淀": 3105,
      "淑": 3106,
      "淖": 3107,
      "淨": 3108,
      "深": 3109,
      "淳": 3110,
      "混": 3111,
      "淸": 3112,
      "添": 3113,
      "清": 3114,
      "済": 3115,
      "渉": 3116,
      "渋": 3117,
      "渓": 3118,
      "渕": 3119,
      "渡": 3120,
      "温": 3121,
      "測": 3122,
      "港": 3123,
      "游": 3124,
      "湍": 3125,
      "湖": 3126,
      "湘": 3127,
      "湯": 3128,
      "湾": 3129,
      "満": 3130,
      "源": 3131,
      "準": 3132,
      "溪": 3133,
      "溫": 3134,
      "溸": 3135,
      "滄": 3136,
      "滅": 3137,
      "滇": 3138,
      "滑": 3139,
      "滕": 3140,
      "滘": 3141,
      "滝": 3142,
      "滨": 3143,
      "滾": 3144,
      "滿": 3145,
      "漁": 3146,
      "漂": 3147,
      "漆": 3148,
      "演": 3149,
      "漠": 3150,
      "漢": 3151,
      "漫": 3152,
      "漬": 3153,
      "漱": 3154,
      "潔": 3155,
      "潘": 3156,
      "潜": 3157,
      "潢": 3158,
      "潤": 3159,
      "潮": 3160,
      "澀": 3161,
      "澄": 3162,
      "澎": 3163,
      "澤": 3164,
      "澳": 3165,
      "激": 3166,
      "濂": 3167,
      "濃": 3168,
      "濟": 3169,
      "濤": 3170,
      "濯": 3171,
      "濱": 3172,
      "瀑": 3173,
      "瀞": 3174,
      "瀟": 3175,
      "瀬": 3176,
      "瀾": 3177,
      "灣": 3178,
      "火": 3179,
      "灭": 3180,
      "灯": 3181,
      "灰": 3182,
      "灵": 3183,
      "災": 3184,
      "灿": 3185,
      "炁": 3186,
      "炊": 3187,
      "炎": 3188,
      "炒": 3189,
      "炭": 3190,
      "炮": 3191,
      "炳": 3192,
      "炸": 3193,
      "点": 3194,
      "為": 3195,
      "炽": 3196,
      "烂": 3197,
      "烈": 3198,
      "烊": 3199,
      "烏": 3200,
      "烙": 3201,
      "烤": 3202,
      "烧": 3203,
      "热": 3204,
      "焉": 3205,
      "焔": 3206,
      "無": 3207,
      "然": 3208,
      "焼": 3209,
      "煙": 3210,
      "煞": 3211,
      "煤": 3212,
      "煥": 3213,
      "煦": 3214,
      "照": 3215,
      "煮": 3216,
      "熊": 3217,
      "熏": 3218,
      "熙": 3219,
      "熱": 3220,
      "熹": 3221,
      "燃": 3222,
      "燈": 3223,
      "燕": 3224,
      "營": 3225,
      "爆": 3226,
      "爪": 3227,
      "爭": 3228,
      "爱": 3229,
      "爵": 3230,
      "父": 3231,
      "爷": 3232,
      "爾": 3233,
      "片": 3234,
      "版": 3235,
      "牌": 3236,
      "牙": 3237,
      "牛": 3238,
      "牟": 3239,
      "牢": 3240,
      "牧": 3241,
      "物": 3242,
      "特": 3243,
      "犀": 3244,
      "犁": 3245,
      "犬": 3246,
      "犹": 3247,
      "狂": 3248,
      "狄": 3249,
      "狐": 3250,
      "狗": 3251,
      "狩": 3252,
      "独": 3253,
      "狭": 3254,
      "狮": 3255,
      "狱": 3256,
      "狻": 3257,
      "狼": 3258,
      "猊": 3259,
      "猎": 3260,
      "猛": 3261,
      "猜": 3262,
      "猪": 3263,
      "猫": 3264,
      "猴": 3265,
      "獄": 3266,
      "獣": 3267,
      "獨": 3268,
      "獵": 3269,
      "獻": 3270,
      "玄": 3271,
      "率": 3272,
      "玉": 3273,
      "王": 3274,
      "玛": 3275,
      "环": 3276,
      "现": 3277,
      "玲": 3278,
      "玺": 3279,
      "珊": 3280,
      "珍": 3281,
      "珠": 3282,
      "珩": 3283,
      "班": 3284,
      "現": 3285,
      "球": 3286,
      "琅": 3287,
      "理": 3288,
      "琉": 3289,
      "琢": 3290,
      "琦": 3291,
      "琪": 3292,
      "琳": 3293,
      "琴": 3294,
      "瑚": 3295,
      "瑛": 3296,
      "瑜": 3297,
      "瑞": 3298,
      "瑟": 3299,
      "瑠": 3300,
      "瑩": 3301,
      "瑶": 3302,
      "璃": 3303,
      "璇": 3304,
      "璘": 3305,
      "璜": 3306,
      "璠": 3307,
      "璧": 3308,
      "環": 3309,
      "璽": 3310,
      "瓊": 3311,
      "瓜": 3312,
      "瓣": 3313,
      "瓯": 3314,
      "瓴": 3315,
      "甄": 3316,
      "甌": 3317,
      "甘": 3318,
      "生": 3319,
      "產": 3320,
      "産": 3321,
      "用": 3322,
      "田": 3323,
      "由": 3324,
      "甲": 3325,
      "电": 3326,
      "男": 3327,
      "甸": 3328,
      "町": 3329,
      "画": 3330,
      "畅": 3331,
      "界": 3332,
      "畏": 3333,
      "畑": 3334,
      "留": 3335,
      "畜": 3336,
      "畠": 3337,
      "略": 3338,
      "番": 3339,
      "畫": 3340,
      "異": 3341,
      "當": 3342,
      "疆": 3343,
      "疊": 3344,
      "疑": 3345,
      "疗": 3346,
      "疣": 3347,
      "疫": 3348,
      "疾": 3349,
      "病": 3350,
      "症": 3351,
      "痕": 3352,
      "痛": 3353,
      "痣": 3354,
      "痧": 3355,
      "痴": 3356,
      "瘰": 3357,
      "療": 3358,
      "発": 3359,
      "登": 3360,
      "發": 3361,
      "白": 3362,
      "百": 3363,
      "的": 3364,
      "皆": 3365,
      "皇": 3366,
      "皋": 3367,
      "皐": 3368,
      "皮": 3369,
      "盆": 3370,
      "益": 3371,
      "盎": 3372,
      "盖": 3373,
      "盘": 3374,
      "盛": 3375,
      "盟": 3376,
      "監": 3377,
      "盤": 3378,
      "盧": 3379,
      "目": 3380,
      "直": 3381,
      "相": 3382,
      "省": 3383,
      "眉": 3384,
      "看": 3385,
      "県": 3386,
      "眞": 3387,
      "真": 3388,
      "眠": 3389,
      "眼": 3390,
      "着": 3391,
      "睛": 3392,
      "睡": 3393,
      "督": 3394,
      "睦": 3395,
      "瞳": 3396,
      "矢": 3397,
      "知": 3398,
      "矩": 3399,
      "短": 3400,
      "石": 3401,
      "矿": 3402,
      "砂": 3403,
      "研": 3404,
      "砲": 3405,
      "破": 3406,
      "硫": 3407,
      "碑": 3408,
      "碗": 3409,
      "碛": 3410,
      "碣": 3411,
      "碧": 3412,
      "磊": 3413,
      "磨": 3414,
      "磬": 3415,
      "磯": 3416,
      "礎": 3417,
      "示": 3418,
      "礼": 3419,
      "社": 3420,
      "祇": 3421,
      "祈": 3422,
      "祉": 3423,
      "祐": 3424,
      "祓": 3425,
      "祕": 3426,
      "祖": 3427,
      "祝": 3428,
      "神": 3429,
      "祥": 3430,
      "票": 3431,
      "祭": 3432,
      "祯": 3433,
      "祿": 3434,
      "禁": 3435,
      "禄": 3436,
      "禅": 3437,
      "禊": 3438,
      "禎": 3439,
      "福": 3440,
      "禧": 3441,
      "禮": 3442,
      "禰": 3443,
      "禾": 3444,
      "秀": 3445,
      "私": 3446,
      "秉": 3447,
      "秋": 3448,
      "种": 3449,
      "科": 3450,
      "秒": 3451,
      "秘": 3452,
      "秦": 3453,
      "积": 3454,
      "移": 3455,
      "稀": 3456,
      "稅": 3457,
      "程": 3458,
      "稔": 3459,
      "稚": 3460,
      "稜": 3461,
      "種": 3462,
      "稲": 3463,
      "稳": 3464,
      "稻": 3465,
      "稼": 3466,
      "稽": 3467,
      "稿": 3468,
      "穂": 3469,
      "穆": 3470,
      "積": 3471,
      "穐": 3472,
      "穣": 3473,
      "穩": 3474,
      "穰": 3475,
      "穴": 3476,
      "究": 3477,
      "空": 3478,
      "突": 3479,
      "窪": 3480,
      "窿": 3481,
      "竈": 3482,
      "立": 3483,
      "站": 3484,
      "竜": 3485,
      "章": 3486,
      "童": 3487,
      "端": 3488,
      "競": 3489,
      "竹": 3490,
      "笄": 3491,
      "笑": 3492,
      "笔": 3493,
      "笘": 3494,
      "笙": 3495,
      "笠": 3496,
      "符": 3497,
      "第": 3498,
      "筆": 3499,
      "等": 3500,
      "筏": 3501,
      "筑": 3502,
      "筒": 3503,
      "策": 3504,
      "筱": 3505,
      "箋": 3506,
      "箕": 3507,
      "算": 3508,
      "管": 3509,
      "箭": 3510,
      "箱": 3511,
      "節": 3512,
      "範": 3513,
      "篆": 3514,
      "篇": 3515,
      "築": 3516,
      "篠": 3517,
      "篤": 3518,
      "簋": 3519,
      "簡": 3520,
      "籍": 3521,
      "籠": 3522,
      "籬": 3523,
      "米": 3524,
      "类": 3525,
      "粋": 3526,
      "精": 3527,
      "糖": 3528,
      "糠": 3529,
      "糯": 3530,
      "糸": 3531,
      "系": 3532,
      "紀": 3533,
      "紂": 3534,
      "約": 3535,
      "紅": 3536,
      "紋": 3537,
      "納": 3538,
      "紐": 3539,
      "紓": 3540,
      "純": 3541,
      "紗": 3542,
      "紘": 3543,
      "紙": 3544,
      "級": 3545,
      "素": 3546,
      "索": 3547,
      "紫": 3548,
      "累": 3549,
      "細": 3550,
      "紳": 3551,
      "紹": 3552,
      "終": 3553,
      "組": 3554,
      "経": 3555,
      "結": 3556,
      "絡": 3557,
      "絢": 3558,
      "統": 3559,
      "絵": 3560,
      "絶": 3561,
      "經": 3562,
      "継": 3563,
      "続": 3564,
      "綬": 3565,
      "維": 3566,
      "綱": 3567,
      "網": 3568,
      "綸": 3569,
      "綺": 3570,
      "綾": 3571,
      "緋": 3572,
      "総": 3573,
      "緑": 3574,
      "緒": 3575,
      "線": 3576,
      "緣": 3577,
      "編": 3578,
      "緩": 3579,
      "緯": 3580,
      "練": 3581,
      "縄": 3582,
      "縣": 3583,
      "縫": 3584,
      "縮": 3585,
      "縻": 3586,
      "總": 3587,
      "績": 3588,
      "繁": 3589,
      "繇": 3590,
      "繓": 3591,
      "織": 3592,
      "繰": 3593,
      "繼": 3594,
      "續": 3595,
      "纏": 3596,
      "红": 3597,
      "级": 3598,
      "纪": 3599,
      "纲": 3600,
      "纳": 3601,
      "线": 3602,
      "组": 3603,
      "细": 3604,
      "织": 3605,
      "绍": 3606,
      "经": 3607,
      "结": 3608,
      "给": 3609,
      "绝": 3610,
      "统": 3611,
      "绣": 3612,
      "继": 3613,
      "绪": 3614,
      "维": 3615,
      "绸": 3616,
      "综": 3617,
      "绿": 3618,
      "缩": 3619,
      "网": 3620,
      "罕": 3621,
      "罗": 3622,
      "置": 3623,
      "署": 3624,
      "羅": 3625,
      "羈": 3626,
      "羊": 3627,
      "羌": 3628,
      "美": 3629,
      "群": 3630,
      "義": 3631,
      "羲": 3632,
      "羽": 3633,
      "翁": 3634,
      "習": 3635,
      "翔": 3636,
      "翠": 3637,
      "翦": 3638,
      "翰": 3639,
      "翼": 3640,
      "耀": 3641,
      "老": 3642,
      "考": 3643,
      "者": 3644,
      "而": 3645,
      "耍": 3646,
      "耕": 3647,
      "耳": 3648,
      "耶": 3649,
      "聂": 3650,
      "联": 3651,
      "聖": 3652,
      "聚": 3653,
      "聞": 3654,
      "聡": 3655,
      "聪": 3656,
      "聯": 3657,
      "聲": 3658,
      "職": 3659,
      "肃": 3660,
      "肇": 3661,
      "肉": 3662,
      "肖": 3663,
      "肛": 3664,
      "股": 3665,
      "肥": 3666,
      "育": 3667,
      "肺": 3668,
      "肾": 3669,
      "背": 3670,
      "胜": 3671,
      "胡": 3672,
      "胤": 3673,
      "胧": 3674,
      "胶": 3675,
      "胸": 3676,
      "能": 3677,
      "脂": 3678,
      "脇": 3679,
      "脩": 3680,
      "脱": 3681,
      "脸": 3682,
      "脹": 3683,
      "腎": 3684,
      "腐": 3685,
      "腰": 3686,
      "腳": 3687,
      "腹": 3688,
      "腾": 3689,
      "膳": 3690,
      "膽": 3691,
      "臣": 3692,
      "臨": 3693,
      "自": 3694,
      "臭": 3695,
      "至": 3696,
      "致": 3697,
      "臺": 3698,
      "臻": 3699,
      "與": 3700,
      "興": 3701,
      "舒": 3702,
      "舞": 3703,
      "舟": 3704,
      "舩": 3705,
      "航": 3706,
      "舱": 3707,
      "舵": 3708,
      "舶": 3709,
      "船": 3710,
      "艙": 3711,
      "艦": 3712,
      "良": 3713,
      "色": 3714,
      "艳": 3715,
      "艶": 3716,
      "艺": 3717,
      "艾": 3718,
      "节": 3719,
      "芋": 3720,
      "芓": 3721,
      "芙": 3722,
      "芝": 3723,
      "芦": 3724,
      "芬": 3725,
      "芭": 3726,
      "花": 3727,
      "芳": 3728,
      "芸": 3729,
      "芹": 3730,
      "芽": 3731,
      "苎": 3732,
      "苏": 3733,
      "苑": 3734,
      "苖": 3735,
      "苗": 3736,
      "若": 3737,
      "苫": 3738,
      "英": 3739,
      "茂": 3740,
      "范": 3741,
      "茄": 3742,
      "茉": 3743,
      "茡": 3744,
      "茫": 3745,
      "茶": 3746,
      "草": 3747,
      "荒": 3748,
      "荣": 3749,
      "荷": 3750,
      "莉": 3751,
      "莊": 3752,
      "莎": 3753,
      "莘": 3754,
      "莫": 3755,
      "莸": 3756,
      "莺": 3757,
      "菅": 3758,
      "菊": 3759,
      "菌": 3760,
      "菓": 3761,
      "菜": 3762,
      "華": 3763,
      "菱": 3764,
      "菴": 3765,
      "萄": 3766,
      "萌": 3767,
      "萍": 3768,
      "萎": 3769,
      "萝": 3770,
      "营": 3771,
      "萩": 3772,
      "萬": 3773,
      "萱": 3774,
      "落": 3775,
      "葉": 3776,
      "葎": 3777,
      "著": 3778,
      "葛": 3779,
      "葡": 3780,
      "董": 3781,
      "葬": 3782,
      "葱": 3783,
      "葵": 3784,
      "蒂": 3785,
      "蒙": 3786,
      "蒲": 3787,
      "蒸": 3788,
      "蒼": 3789,
      "蓉": 3790,
      "蓋": 3791,
      "蓐": 3792,
      "蓬": 3793,
      "蓮": 3794,
      "蓼": 3795,
      "蔡": 3796,
      "蔥": 3797,
      "蔦": 3798,
      "蔭": 3799,
      "蔵": 3800,
      "蔺": 3801,
      "蕃": 3802,
      "蕉": 3803,
      "蕩": 3804,
      "薄": 3805,
      "薇": 3806,
      "薊": 3807,
      "薏": 3808,
      "薔": 3809,
      "薙": 3810,
      "薛": 3811,
      "薩": 3812,
      "薫": 3813,
      "薬": 3814,
      "藍": 3815,
      "藏": 3816,
      "藝": 3817,
      "藤": 3818,
      "藥": 3819,
      "藩": 3820,
      "藺": 3821,
      "蘇": 3822,
      "蘋": 3823,
      "蘭": 3824,
      "虎": 3825,
      "處": 3826,
      "虛": 3827,
      "虞": 3828,
      "號": 3829,
      "虧": 3830,
      "虫": 3831,
      "虹": 3832,
      "蛇": 3833,
      "蛍": 3834,
      "蛙": 3835,
      "蛟": 3836,
      "蜂": 3837,
      "蝶": 3838,
      "蝾": 3839,
      "螈": 3840,
      "融": 3841,
      "蟾": 3842,
      "蠡": 3843,
      "蠶": 3844,
      "蠻": 3845,
      "血": 3846,
      "衆": 3847,
      "行": 3848,
      "衍": 3849,
      "術": 3850,
      "街": 3851,
      "衛": 3852,
      "衡": 3853,
      "衢": 3854,
      "衣": 3855,
      "补": 3856,
      "表": 3857,
      "衷": 3858,
      "袁": 3859,
      "袋": 3860,
      "袖": 3861,
      "袞": 3862,
      "被": 3863,
      "装": 3864,
      "裏": 3865,
      "裔": 3866,
      "裕": 3867,
      "補": 3868,
      "裴": 3869,
      "裸": 3870,
      "製": 3871,
      "裾": 3872,
      "褚": 3873,
      "襦": 3874,
      "襲": 3875,
      "西": 3876,
      "要": 3877,
      "覃": 3878,
      "覇": 3879,
      "見": 3880,
      "規": 3881,
      "視": 3882,
      "覚": 3883,
      "親": 3884,
      "観": 3885,
      "覺": 3886,
      "覽": 3887,
      "觀": 3888,
      "观": 3889,
      "视": 3890,
      "角": 3891,
      "觚": 3892,
      "解": 3893,
      "觥": 3894,
      "触": 3895,
      "言": 3896,
      "計": 3897,
      "討": 3898,
      "訓": 3899,
      "託": 3900,
      "記": 3901,
      "訢": 3902,
      "設": 3903,
      "許": 3904,
      "評": 3905,
      "詞": 3906,
      "詢": 3907,
      "試": 3908,
      "詩": 3909,
      "話": 3910,
      "詹": 3911,
      "誌": 3912,
      "誕": 3913,
      "誘": 3914,
      "語": 3915,
      "誠": 3916,
      "說": 3917,
      "説": 3918,
      "読": 3919,
      "誰": 3920,
      "課": 3921,
      "調": 3922,
      "談": 3923,
      "論": 3924,
      "諧": 3925,
      "諭": 3926,
      "諱": 3927,
      "諵": 3928,
      "諸": 3929,
      "謀": 3930,
      "謁": 3931,
      "謄": 3932,
      "謎": 3933,
      "謙": 3934,
      "講": 3935,
      "謝": 3936,
      "謡": 3937,
      "謨": 3938,
      "識": 3939,
      "譜": 3940,
      "警": 3941,
      "議": 3942,
      "譲": 3943,
      "護": 3944,
      "變": 3945,
      "计": 3946,
      "议": 3947,
      "记": 3948,
      "许": 3949,
      "论": 3950,
      "讼": 3951,
      "设": 3952,
      "证": 3953,
      "识": 3954,
      "诉": 3955,
      "试": 3956,
      "诗": 3957,
      "诚": 3958,
      "话": 3959,
      "语": 3960,
      "说": 3961,
      "诸": 3962,
      "诺": 3963,
      "调": 3964,
      "谈": 3965,
      "谊": 3966,
      "谋": 3967,
      "谐": 3968,
      "谜": 3969,
      "谦": 3970,
      "谭": 3971,
      "谱": 3972,
      "谷": 3973,
      "豆": 3974,
      "豉": 3975,
      "豊": 3976,
      "豐": 3977,
      "豚": 3978,
      "象": 3979,
      "豢": 3980,
      "豪": 3981,
      "貌": 3982,
      "貓": 3983,
      "貝": 3984,
      "貞": 3985,
      "財": 3986,
      "貢": 3987,
      "販": 3988,
      "貫": 3989,
      "貴": 3990,
      "費": 3991,
      "貿": 3992,
      "賀": 3993,
      "資": 3994,
      "賈": 3995,
      "賊": 3996,
      "賜": 3997,
      "賢": 3998,
      "賣": 3999,
      "賦": 4000,
      "賭": 4001,
      "賴": 4002,
      "贛": 4003,
      "贝": 4004,
      "负": 4005,
      "贡": 4006,
      "财": 4007,
      "责": 4008,
      "贤": 4009,
      "败": 4010,
      "货": 4011,
      "贯": 4012,
      "贴": 4013,
      "贵": 4014,
      "贷": 4015,
      "资": 4016,
      "赛": 4017,
      "赞": 4018,
      "赡": 4019,
      "赣": 4020,
      "赤": 4021,
      "赫": 4022,
      "走": 4023,
      "赳": 4024,
      "赵": 4025,
      "起": 4026,
      "超": 4027,
      "越": 4028,
      "趙": 4029,
      "趣": 4030,
      "足": 4031,
      "跋": 4032,
      "跑": 4033,
      "路": 4034,
      "跳": 4035,
      "践": 4036,
      "跷": 4037,
      "踊": 4038,
      "踩": 4039,
      "蹴": 4040,
      "蹼": 4041,
      "身": 4042,
      "躺": 4043,
      "車": 4044,
      "軍": 4045,
      "軒": 4046,
      "輒": 4047,
      "輔": 4048,
      "輝": 4049,
      "輪": 4050,
      "輿": 4051,
      "轉": 4052,
      "轎": 4053,
      "车": 4054,
      "转": 4055,
      "辉": 4056,
      "辛": 4057,
      "辞": 4058,
      "辟": 4059,
      "辣": 4060,
      "辰": 4061,
      "農": 4062,
      "辺": 4063,
      "辻": 4064,
      "辽": 4065,
      "达": 4066,
      "迅": 4067,
      "过": 4068,
      "迎": 4069,
      "运": 4070,
      "近": 4071,
      "进": 4072,
      "远": 4073,
      "连": 4074,
      "迦": 4075,
      "迪": 4076,
      "迫": 4077,
      "述": 4078,
      "迷": 4079,
      "送": 4080,
      "适": 4081,
      "逆": 4082,
      "选": 4083,
      "逊": 4084,
      "透": 4085,
      "途": 4086,
      "通": 4087,
      "逝": 4088,
      "速": 4089,
      "造": 4090,
      "連": 4091,
      "週": 4092,
      "進": 4093,
      "逸": 4094,
      "遂": 4095,
      "遇": 4096,
      "遊": 4097,
      "運": 4098,
      "過": 4099,
      "道": 4100,
      "達": 4101,
      "遠": 4102,
      "遡": 4103,
      "遭": 4104,
      "遵": 4105,
      "遷": 4106,
      "選": 4107,
      "遺": 4108,
      "遼": 4109,
      "避": 4110,
      "邁": 4111,
      "還": 4112,
      "邉": 4113,
      "邊": 4114,
      "邓": 4115,
      "那": 4116,
      "邦": 4117,
      "邪": 4118,
      "邮": 4119,
      "邯": 4120,
      "邱": 4121,
      "邹": 4122,
      "邾": 4123,
      "郁": 4124,
      "郍": 4125,
      "郎": 4126,
      "郑": 4127,
      "郛": 4128,
      "郡": 4129,
      "郢": 4130,
      "部": 4131,
      "郭": 4132,
      "郵": 4133,
      "郷": 4134,
      "都": 4135,
      "鄂": 4136,
      "鄒": 4137,
      "鄧": 4138,
      "鄭": 4139,
      "鄲": 4140,
      "鄶": 4141,
      "酉": 4142,
      "配": 4143,
      "酒": 4144,
      "酢": 4145,
      "酬": 4146,
      "酱": 4147,
      "酸": 4148,
      "醉": 4149,
      "醋": 4150,
      "醫": 4151,
      "醬": 4152,
      "釋": 4153,
      "里": 4154,
      "重": 4155,
      "野": 4156,
      "量": 4157,
      "金": 4158,
      "釘": 4159,
      "釜": 4160,
      "釣": 4161,
      "鈴": 4162,
      "鉄": 4163,
      "鉉": 4164,
      "鉢": 4165,
      "銀": 4166,
      "銅": 4167,
      "銈": 4168,
      "銑": 4169,
      "銭": 4170,
      "鋒": 4171,
      "鋭": 4172,
      "鋼": 4173,
      "錄": 4174,
      "錘": 4175,
      "錠": 4176,
      "錢": 4177,
      "錦": 4178,
      "錫": 4179,
      "錬": 4180,
      "録": 4181,
      "錵": 4182,
      "鍋": 4183,
      "鍵": 4184,
      "鍾": 4185,
      "鎌": 4186,
      "鎖": 4187,
      "鎧": 4188,
      "鎬": 4189,
      "鎮": 4190,
      "鏘": 4191,
      "鏞": 4192,
      "鏡": 4193,
      "鐘": 4194,
      "鑫": 4195,
      "钟": 4196,
      "钢": 4197,
      "钱": 4198,
      "铁": 4199,
      "铜": 4200,
      "铭": 4201,
      "银": 4202,
      "铺": 4203,
      "铿": 4204,
      "锅": 4205,
      "错": 4206,
      "锡": 4207,
      "锦": 4208,
      "镇": 4209,
      "镜": 4210,
      "長": 4211,
      "长": 4212,
      "門": 4213,
      "閃": 4214,
      "閉": 4215,
      "開": 4216,
      "間": 4217,
      "関": 4218,
      "閣": 4219,
      "閥": 4220,
      "閩": 4221,
      "閻": 4222,
      "闇": 4223,
      "闘": 4224,
      "闡": 4225,
      "门": 4226,
      "闪": 4227,
      "闭": 4228,
      "问": 4229,
      "间": 4230,
      "闻": 4231,
      "队": 4232,
      "阮": 4233,
      "防": 4234,
      "阳": 4235,
      "阴": 4236,
      "阶": 4237,
      "阿": 4238,
      "陀": 4239,
      "附": 4240,
      "际": 4241,
      "陆": 4242,
      "陈": 4243,
      "降": 4244,
      "限": 4245,
      "陕": 4246,
      "陛": 4247,
      "陝": 4248,
      "院": 4249,
      "陣": 4250,
      "除": 4251,
      "陰": 4252,
      "陳": 4253,
      "陵": 4254,
      "陶": 4255,
      "陸": 4256,
      "険": 4257,
      "陽": 4258,
      "隆": 4259,
      "隊": 4260,
      "階": 4261,
      "隘": 4262,
      "際": 4263,
      "障": 4264,
      "隠": 4265,
      "隣": 4266,
      "隨": 4267,
      "隶": 4268,
      "隸": 4269,
      "隼": 4270,
      "难": 4271,
      "雀": 4272,
      "雁": 4273,
      "雄": 4274,
      "雅": 4275,
      "集": 4276,
      "雋": 4277,
      "雍": 4278,
      "雎": 4279,
      "雑": 4280,
      "雒": 4281,
      "雙": 4282,
      "雛": 4283,
      "雜": 4284,
      "雞": 4285,
      "難": 4286,
      "雨": 4287,
      "雪": 4288,
      "雲": 4289,
      "零": 4290,
      "雷": 4291,
      "電": 4292,
      "雾": 4293,
      "需": 4294,
      "震": 4295,
      "霊": 4296,
      "霍": 4297,
      "霖": 4298,
      "霜": 4299,
      "霞": 4300,
      "霧": 4301,
      "露": 4302,
      "靈": 4303,
      "青": 4304,
      "靖": 4305,
      "静": 4306,
      "非": 4307,
      "面": 4308,
      "革": 4309,
      "鞏": 4310,
      "鞜": 4311,
      "鞠": 4312,
      "韓": 4313,
      "韦": 4314,
      "韩": 4315,
      "韬": 4316,
      "韭": 4317,
      "韮": 4318,
      "音": 4319,
      "響": 4320,
      "頁": 4321,
      "項": 4322,
      "順": 4323,
      "須": 4324,
      "頊": 4325,
      "頌": 4326,
      "預": 4327,
      "頗": 4328,
      "領": 4329,
      "頬": 4330,
      "頭": 4331,
      "頰": 4332,
      "頼": 4333,
      "額": 4334,
      "顏": 4335,
      "顓": 4336,
      "顔": 4337,
      "顕": 4338,
      "願": 4339,
      "類": 4340,
      "顧": 4341,
      "顯": 4342,
      "顶": 4343,
      "项": 4344,
      "顺": 4345,
      "须": 4346,
      "颁": 4347,
      "预": 4348,
      "领": 4349,
      "颇": 4350,
      "颐": 4351,
      "颖": 4352,
      "题": 4353,
      "風": 4354,
      "风": 4355,
      "飘": 4356,
      "飛": 4357,
      "飞": 4358,
      "食": 4359,
      "飩": 4360,
      "飯": 4361,
      "飲": 4362,
      "餅": 4363,
      "餐": 4364,
      "餓": 4365,
      "餘": 4366,
      "餛": 4367,
      "館": 4368,
      "饺": 4369,
      "饼": 4370,
      "馆": 4371,
      "首": 4372,
      "香": 4373,
      "馨": 4374,
      "馬": 4375,
      "駄": 4376,
      "駑": 4377,
      "駒": 4378,
      "駕": 4379,
      "駘": 4380,
      "駛": 4381,
      "駿": 4382,
      "騎": 4383,
      "驗": 4384,
      "驟": 4385,
      "驥": 4386,
      "马": 4387,
      "驴": 4388,
      "验": 4389,
      "骢": 4390,
      "骨": 4391,
      "體": 4392,
      "高": 4393,
      "髙": 4394,
      "髪": 4395,
      "髭": 4396,
      "鬱": 4397,
      "鬼": 4398,
      "魂": 4399,
      "魃": 4400,
      "魏": 4401,
      "魔": 4402,
      "魚": 4403,
      "魯": 4404,
      "鮑": 4405,
      "鮪": 4406,
      "鮮": 4407,
      "鯉": 4408,
      "鯛": 4409,
      "鯢": 4410,
      "鱼": 4411,
      "鲁": 4412,
      "鲍": 4413,
      "鲵": 4414,
      "鳞": 4415,
      "鳥": 4416,
      "鳩": 4417,
      "鳳": 4418,
      "鳴": 4419,
      "鴨": 4420,
      "鴻": 4421,
      "鵬": 4422,
      "鶏": 4423,
      "鶯": 4424,
      "鶴": 4425,
      "鷹": 4426,
      "鸡": 4427,
      "鸢": 4428,
      "鸣": 4429,
      "鹏": 4430,
      "鹤": 4431,
      "鹿": 4432,
      "麓": 4433,
      "麗": 4434,
      "麟": 4435,
      "麥": 4436,
      "麦": 4437,
      "麪": 4438,
      "麵": 4439,
      "麻": 4440,
      "麼": 4441,
      "麿": 4442,
      "黃": 4443,
      "黄": 4444,
      "黑": 4445,
      "黒": 4446,
      "默": 4447,
      "點": 4448,
      "黨": 4449,
      "鼎": 4450,
      "鼐": 4451,
      "鼓": 4452,
      "鼻": 4453,
      "齊": 4454,
      "齋": 4455,
      "齐": 4456,
      "齕": 4457,
      "齡": 4458,
      "齮": 4459,
      "齿": 4460,
      "龍": 4461,
      "龔": 4462,
      "龙": 4463,
      "龚": 4464,
      "ꀘ": 4465,
      "ꂾ": 4466,
      "ꙉ": 4467,
      "ꜜ": 4468,
      "ꜣ": 4469,
      "ꜥ": 4470,
      "꞉": 4471,
      "ꞌ": 4472,
      "ꞵ": 4473,
      "ꦗ": 4474,
      "ꦢ": 4475,
      "ꦤ": 4476,
      "ꦩ": 4477,
      "ꦪ": 4478,
      "ꦫ": 4479,
      "ꦮ": 4480,
      "꧁": 4481,
      "꧂": 4482,
      "ꭰ": 4483,
      "ꭱ": 4484,
      "ꭶ": 4485,
      "ꭹ": 4486,
      "ꭿ": 4487,
      "ꮃ": 4488,
      "ꮈ": 4489,
      "ꮒ": 4490,
      "ꮖ": 4491,
      "ꮝ": 4492,
      "ꮣ": 4493,
      "ꮥ": 4494,
      "ꮧ": 4495,
      "ꮩ": 4496,
      "ꮪ": 4497,
      "ꮳ": 4498,
      "ꮷ": 4499,
      "ꮿ": 4500,
      "﴾": 4501,
      "﴿": 4502,
      "﹡": 4503,
      "ﹳ": 4504,
      "！": 4505,
      "＆": 4506,
      "（": 4507,
      "）": 4508,
      "，": 4509,
      "－": 4510,
      "／": 4511,
      "１": 4512,
      "２": 4513,
      "３": 4514,
      "４": 4515,
      "５": 4516,
      "６": 4517,
      "７": 4518,
      "８": 4519,
      "：": 4520,
      "；": 4521,
      "＜": 4522,
      "＝": 4523,
      "＞": 4524,
      "？": 4525,
      "＠": 4526,
      "［": 4527,
      "］": 4528,
      "ａ": 4529,
      "ｊ": 4530,
      "｜": 4531,
      "～": 4532,
      "￼": 4533,
      "𐌄": 4534,
      "𐌅": 4535,
      "𐌉": 4536,
      "𐌋": 4537,
      "𐌕": 4538,
      "𐌝": 4539,
      "𐌞": 4540,
      "𐌰": 4541,
      "𐌳": 4542,
      "𐌷": 4543,
      "𐌹": 4544,
      "𐌻": 4545,
      "𐌽": 4546,
      "𐌿": 4547,
      "𐍃": 4548,
      "𐍄": 4549,
      "𐍅": 4550,
      "𐍆": 4551,
      "𐎄": 4552,
      "𐎌": 4553,
      "𐎎": 4554,
      "𐎕": 4555,
      "𐎗": 4556,
      "𐎠": 4557,
      "𐎡": 4558,
      "𐎢": 4559,
      "𐎥": 4560,
      "𐎦": 4561,
      "𐎧": 4562,
      "𐎫": 4563,
      "𐎬": 4564,
      "𐎭": 4565,
      "𐎱": 4566,
      "𐎲": 4567,
      "𐎴": 4568,
      "𐎶": 4569,
      "𐎷": 4570,
      "𐎹": 4571,
      "𐎼": 4572,
      "𐏁": 4573,
      "𐏂": 4574,
      "𐒆": 4575,
      "𐒇": 4576,
      "𐒈": 4577,
      "𐒋": 4578,
      "𐒏": 4579,
      "𐒐": 4580,
      "𐒑": 4581,
      "𐒕": 4582,
      "𐒖": 4583,
      "𐒘": 4584,
      "𐒛": 4585,
      "𐒜": 4586,
      "𐒝": 4587,
      "𐡀": 4588,
      "𐡉": 4589,
      "𐡊": 4590,
      "𐡋": 4591,
      "𐡌": 4592,
      "𐡍": 4593,
      "𐡐": 4594,
      "𐡔": 4595,
      "𐡕": 4596,
      "𐤀": 4597,
      "𐤁": 4598,
      "𐤂": 4599,
      "𐤃": 4600,
      "𐤅": 4601,
      "𐤆": 4602,
      "𐤇": 4603,
      "𐤈": 4604,
      "𐤉": 4605,
      "𐤊": 4606,
      "𐤋": 4607,
      "𐤌": 4608,
      "𐤍": 4609,
      "𐤎": 4610,
      "𐤏": 4611,
      "𐤐": 4612,
      "𐤒": 4613,
      "𐤓": 4614,
      "𐤔": 4615,
      "𐤕": 4616,
      "𐩠": 4617,
      "𐩡": 4618,
      "𐩢": 4619,
      "𐩣": 4620,
      "𐩥": 4621,
      "𐩦": 4622,
      "𐩧": 4623,
      "𐩨": 4624,
      "𐩩": 4625,
      "𐩪": 4626,
      "𐩫": 4627,
      "𐩬": 4628,
      "𐩱": 4629,
      "𐩲": 4630,
      "𐩵": 4631,
      "𐩹": 4632,
      "𐩺": 4633,
      "𐭅": 4634,
      "𐭇": 4635,
      "𐭉": 4636,
      "𐭊": 4637,
      "𐭌": 4638,
      "𐭍": 4639,
      "𐭐": 4640,
      "𐭑": 4641,
      "𐭓": 4642,
      "𐭔": 4643,
      "𐭛": 4644,
      "𐭜": 4645,
      "𐭝": 4646,
      "𐭞": 4647,
      "𐭠": 4648,
      "𐭡": 4649,
      "𐭣": 4650,
      "𐭥": 4651,
      "𐭧": 4652,
      "𐭩": 4653,
      "𐭪": 4654,
      "𐭫": 4655,
      "𐭬": 4656,
      "𐭭": 4657,
      "𐭯": 4658,
      "𐭰": 4659,
      "𐭱": 4660,
      "𐭲": 4661,
      "𐰀": 4662,
      "𐰇": 4663,
      "𐰍": 4664,
      "𐰜": 4665,
      "𐰢": 4666,
      "𐰰": 4667,
      "𐰴": 4668,
      "𐰺": 4669,
      "𐰼": 4670,
      "𐱃": 4671,
      "𐱅": 4672,
      "𑀓": 4673,
      "𑀝": 4674,
      "𑀢": 4675,
      "𑀥": 4676,
      "𑀧": 4677,
      "𑀪": 4678,
      "𑀫": 4679,
      "𑀮": 4680,
      "𑀯": 4681,
      "𒀀": 4682,
      "𒀉": 4683,
      "𒀊": 4684,
      "𒀏": 4685,
      "𒀕": 4686,
      "𒀠": 4687,
      "𒀪": 4688,
      "𒀭": 4689,
      "𒀯": 4690,
      "𒀳": 4691,
      "𒀴": 4692,
      "𒀸": 4693,
      "𒁀": 4694,
      "𒁺": 4695,
      "𒁾": 4696,
      "𒂍": 4697,
      "𒂗": 4698,
      "𒂞": 4699,
      "𒂵": 4700,
      "𒂷": 4701,
      "𒃲": 4702,
      "𒃻": 4703,
      "𒄈": 4704,
      "𒄑": 4705,
      "𒄘": 4706,
      "𒄞": 4707,
      "𒄠": 4708,
      "𒄥": 4709,
      "𒄩": 4710,
      "𒄭": 4711,
      "𒄸": 4712,
      "𒄿": 4713,
      "𒅀": 4714,
      "𒅆": 4715,
      "𒅋": 4716,
      "𒅎": 4717,
      "𒅖": 4718,
      "𒅗": 4719,
      "𒆠": 4720,
      "𒆤": 4721,
      "𒆥": 4722,
      "𒆷": 4723,
      "𒇻": 4724,
      "𒇽": 4725,
      "𒈗": 4726,
      "𒈚": 4727,
      "𒈠": 4728,
      "𒈥": 4729,
      "𒈦": 4730,
      "𒈧": 4731,
      "𒈨": 4732,
      "𒈩": 4733,
      "𒈪": 4734,
      "𒈲": 4735,
      "𒈹": 4736,
      "𒈾": 4737,
      "𒉈": 4738,
      "𒉡": 4739,
      "𒊏": 4740,
      "𒊑": 4741,
      "𒊕": 4742,
      "𒊨": 4743,
      "𒊩": 4744,
      "𒊬": 4745,
      "𒋗": 4746,
      "𒋙": 4747,
      "𒋞": 4748,
      "𒋡": 4749,
      "𒋢": 4750,
      "𒋦": 4751,
      "𒋩": 4752,
      "𒋭": 4753,
      "𒋰": 4754,
      "𒋾": 4755,
      "𒌁": 4756,
      "𒌆": 4757,
      "𒌉": 4758,
      "𒌋": 4759,
      "𒌍": 4760,
      "𒌑": 4761,
      "𒌓": 4762,
      "𒌨": 4763,
      "𒌷": 4764,
      "𒍑": 4765,
      "𒍝": 4766,
      "𒍪": 4767,
      "𒎏": 4768,
      "𓇾": 4769,
      "𓍿": 4770,
      "𓏏": 4771,
      "𝄆": 4772,
      "𝄇": 4773,
      "𝋀": 4774,
      "𝋁": 4775,
      "𝋂": 4776,
      "𝋃": 4777,
      "𝋄": 4778,
      "𝋅": 4779,
      "𝋆": 4780,
      "𝋇": 4781,
      "𝋉": 4782,
      "𝋒": 4783,
      "𝐽": 4784,
      "𝑁": 4785,
      "𝑃": 4786,
      "𝑅": 4787,
      "𝑆": 4788,
      "𝑇": 4789,
      "𝑊": 4790,
      "𝑋": 4791,
      "𝑑": 4792,
      "𝑖": 4793,
      "𝑗": 4794,
      "𝑘": 4795,
      "𝑛": 4796,
      "𝑠": 4797,
      "𝑢": 4798,
      "𝑥": 4799,
      "𝒫": 4800,
      "𝓐": 4801,
      "𝓗": 4802,
      "𝓝": 4803,
      "𝓢": 4804,
      "𝔓": 4805,
      "𝛾": 4806,
      "𝜎": 4807,
      "𝞴": 4808,
      "🄮": 4809,
      "🅪": 4810,
      "🇦": 4811,
      "🇧": 4812,
      "🇨": 4813,
      "🇩": 4814,
      "🇪": 4815,
      "🇫": 4816,
      "🇬": 4817,
      "🇭": 4818,
      "🇮": 4819,
      "🇯": 4820,
      "🇲": 4821,
      "🇳": 4822,
      "🇴": 4823,
      "🇵": 4824,
      "🇶": 4825,
      "🇸": 4826,
      "🇹": 4827,
      "🇻": 4828,
      "🇼": 4829,
      "🇾": 4830,
      "🇿": 4831,
      "🌊": 4832,
      "🌍": 4833,
      "🌎": 4834,
      "🌏": 4835,
      "🌐": 4836,
      "🌙": 4837,
      "🌬": 4838,
      "🌲": 4839,
      "🍅": 4840,
      "🎼": 4841,
      "🏆": 4842,
      "🏊": 4843,
      "💙": 4844,
      "💜": 4845,
      "💺": 4846,
      "💼": 4847,
      "📋": 4848,
      "📜": 4849,
      "🔄": 4850,
      "🗿": 4851,
      "🚆": 4852,
      "🚩": 4853,
      "🜃": 4854,
      "🜨": 4855,
      "🠘": 4856,
      "🡐": 4857,
      "🥇": 4858,
      "🥈": 4859,
      "🦅": 4860,
      "🦋": 4861,
      "🧄": 4862,
      "𠮟": 4863,
      "𡇸": 4864,
      "𡦂": 4865,
      "𡨸": 4866,
      "𪧚": 4867,
      "##ل": 4868,
      "##ي": 4869,
      "## ": 4870,
      "##ع": 4871,
      "##ب": 4872,
      "##د": 4873,
      "## ": 4874,
      "##ا": 4875,
      "##ه": 4876,
      "##خ": 4877,
      "##ف": 4878,
      "##س": 4879,
      "##م": 4880,
      "##ن": 4881,
      "##و": 4882,
      "##ة": 4883,
      "##ك": 4884,
      "##ت": 4885,
      "##1": 4886,
      "##9": 4887,
      "##5": 4888,
      "##،": 4889,
      "##ق": 4890,
      "##ش": 4891,
      "##ر": 4892,
      "##ج": 4893,
      "##8": 4894,
      "##ز": 4895,
      "##ض": 4896,
      "##6": 4897,
      "##ص": 4898,
      "##2": 4899,
      "##0": 4900,
      "##3": 4901,
      "##ح": 4902,
      "##-": 4903,
      "##(": 4904,
      "##7": 4905,
      "##)": 4906,
      "##ء": 4907,
      "##.": 4908,
      "##\n": 4909,
      "##ذ": 4910,
      "##ط": 4911,
      "##ى": 4912,
      "##غ": 4913,
      "##4": 4914,
      "##p": 4915,
      "##r": 4916,
      "##u": 4917,
      "##n": 4918,
      "##s": 4919,
      "##i": 4920,
      "##a": 4921,
      "##\"": 4922,
      "##؛": 4923,
      "##ث": 4924,
      "##ظ": 4925,
      "##,": 4926,
      "##%": 4927,
      "##–": 4928,
      "##c": 4929,
      "##f": 4930,
      "##x": 4931,
      "##l": 4932,
      "##o": 4933,
      "##k": 4934,
      "##&": 4935,
      "##m": 4936,
      "##;": 4937,
      "##y": 4938,
      "##h": 4939,
      "##t": 4940,
      "##g": 4941,
      "##b": 4942,
      "##:": 4943,
      "##e": 4944,
      "##d": 4945,
      "##j": 4946,
      "##w": 4947,
      "##/": 4948,
      "##«": 4949,
      "##»": 4950,
      "##ـ": 4951,
      "##‌": 4952,
      "##=": 4953,
      "##[": 4954,
      "##]": 4955,
      "##'": 4956,
      "##v": 4957,
      "##٫": 4958,
      "##z": 4959,
      "##q": 4960,
      "##×": 4961,
      "##\\": 4962,
      "##٨": 4963,
      "##٪": 4964,
      "##‍": 4965,
      "##گ": 4966,
      "##چ": 4967,
      "##!": 4968,
      "##ᄆ": 4969,
      "##ᅩ": 4970,
      "##ᄇ": 4971,
      "##ᅥ": 4972,
      "##ᆷ": 4973,
      "##ᄀ": 4974,
      "##ᅡ": 4975,
      "##ᄌ": 4976,
      "##ᆨ": 4977,
      "##н": 4978,
      "##а": 4979,
      "##б": 4980,
      "##е": 4981,
      "##г": 4982,
      "##؟": 4983,
      "##_": 4984,
      "##<": 4985,
      "##>": 4986,
      "##{": 4987,
      "##|": 4988,
      "##и": 4989,
      "##в": 4990,
      "##л": 4991,
      "##к": 4992,
      "##с": 4993,
      "##д": 4994,
      "##р": 4995,
      "##о": 4996,
      "##ч": 4997,
      "##?": 4998,
      "##ł": 4999,
      "##$": 5000,
      "##ア": 5001,
      "##ン": 5002,
      "##ト": 5003,
      "##ニ": 5004,
      "##ー": 5005,
      "##・": 5006,
      "##カ": 5007,
      "##ウ": 5008,
      "##テ": 5009,
      "##ィ": 5010,
      "##π": 5011,
      "##τ": 5012,
      "##ο": 5013,
      "##λ": 5014,
      "##ε": 5015,
      "##μ": 5016,
      "##α": 5017,
      "##ι": 5018,
      "##ς": 5019,
      "##υ": 5020,
      "##ρ": 5021,
      "##γ": 5022,
      "##η": 5023,
      "##φ": 5024,
      "##ω": 5025,
      "##ν": 5026,
      "##`": 5027,
      "##*": 5028,
      "##σ": 5029,
      "##ᅳ": 5030,
      "##ᄅ": 5031,
      "##ᅵ": 5032,
      "##ᄃ": 5033,
      "##+": 5034,
      "##眞": 5035,
      "##鍋": 5036,
      "##昭": 5037,
      "##大": 5038,
      "##♭": 5039,
      "##δ": 5040,
      "###": 5041,
      "##飯": 5042,
      "##塚": 5043,
      "##幸": 5044,
      "##三": 5045,
      "##い": 5046,
      "##つ": 5047,
      "##か": 5048,
      "##こ": 5049,
      "##う": 5050,
      "##そ": 5051,
      "##”": 5052,
      "##“": 5053,
      "##ð": 5054,
      "##張": 5055,
      "##名": 5056,
      "##雅": 5057,
      "##ק": 5058,
      "##צ": 5059,
      "##י": 5060,
      "##ע": 5061,
      "##ה": 5062,
      "##ל": 5063,
      "##ו": 5064,
      "##ן": 5065,
      "##ی": 5066,
      "##²": 5067,
      "##…": 5068,
      "##•": 5069,
      "##æ": 5070,
      "##п": 5071,
      "##ь": 5072,
      "##ы": 5073,
      "##з": 5074,
      "##м": 5075,
      "##~": 5076,
      "##→": 5077,
      "##ڤ": 5078,
      "##’": 5079,
      "##姜": 5080,
      "##苗": 5081,
      "##女": 5082,
      "##魃": 5083,
      "##泰": 5084,
      "##山": 5085,
      "##石": 5086,
      "##敢": 5087,
      "##當": 5088,
      "##ک": 5089,
      "##ı": 5090,
      "##„": 5091,
      "##ø": 5092,
      "##ᆼ": 5093,
      "##ᆫ": 5094,
      "##ᄋ": 5095,
      "##°": 5096,
      "##伊": 5097,
      "##藤": 5098,
      "##と": 5099,
      "##東": 5100,
      "##都": 5101,
      "##あ": 5102,
      "##亜": 5103,
      "##衣": 5104,
      "##美": 5105,
      "##明": 5106,
      "##弘": 5107,
      "##さ": 5108,
      "##綾": 5109,
      "##子": 5110,
      "##由": 5111,
      "##歩": 5112,
      "##彩": 5113,
      "##沙": 5114,
      "##千": 5115,
      "##晃": 5116,
      "##恵": 5117,
      "##忠": 5118,
      "##太": 5119,
      "##壇": 5120,
      "##永": 5121,
      "##之": 5122,
      "##里": 5123,
      "##富": 5124,
      "##士": 5125,
      "##夫": 5126,
      "##文": 5127,
      "##史": 5128,
      "##朗": 5129,
      "##玄": 5130,
      "##剛": 5131,
      "##華": 5132,
      "##英": 5133,
      "##隼": 5134,
      "##平": 5135,
      "##一": 5136,
      "##郎": 5137,
      "##井": 5138,
      "##光": 5139,
      "##博": 5140,
      "##比": 5141,
      "##呂": 5142,
      "##裕": 5143,
      "##·": 5144,
      "##長": 5145,
      "##郁": 5146,
      "##刀": 5147,
      "##斎": 5148,
      "##若": 5149,
      "##冲": 5150,
      "##仁": 5151,
      "##穰": 5152,
      "##順": 5153,
      "##潤": 5154,
      "##二": 5155,
      "##淳": 5156,
      "##準": 5157,
      "##規": 5158,
      "##可": 5159,
      "##奈": 5160,
      "##な": 5161,
      "##香": 5162,
      "##菜": 5163,
      "##勝": 5164,
      "##す": 5165,
      "##え": 5166,
      "##良": 5167,
      "##和": 5168,
      "##典": 5169,
      "##慧": 5170,
      "##敬": 5171,
      "##圭": 5172,
      "##介": 5173,
      "##祐": 5174,
      "##乾": 5175,
      "##賢": 5176,
      "##治": 5177,
      "##健": 5178,
      "##次": 5179,
      "##君": 5180,
      "##熹": 5181,
      "##朔": 5182,
      "##清": 5183,
      "##浩": 5184,
      "##司": 5185,
      "##公": 5186,
      "##熊": 5187,
      "##国": 5188,
      "##舞": 5189,
      "##ま": 5190,
      "##麻": 5191,
      "##希": 5192,
      "##真": 5193,
      "##貴": 5194,
      "##槙": 5195,
      "##人": 5196,
      "##誠": 5197,
      "##マ": 5198,
      "##シ": 5199,
      "##ョ": 5200,
      "##理": 5201,
      "##暢": 5202,
      "##達": 5203,
      "##正": 5204,
      "##樹": 5205,
      "##男": 5206,
      "##俊": 5207,
      "##義": 5208,
      "##澄": 5209,
      "##道": 5210,
      "##み": 5211,
      "##り": 5212,
      "##加": 5213,
      "##実": 5214,
      "##紀": 5215,
      "##き": 5216,
      "##来": 5217,
      "##咲": 5218,
      "##や": 5219,
      "##巳": 5220,
      "##代": 5221,
      "##瑞": 5222,
      "##修": 5223,
      "##令": 5224,
      "##直": 5225,
      "##尚": 5226,
      "##往": 5227,
      "##野": 5228,
      "##枝": 5229,
      "##の": 5230,
      "##ち": 5231,
      "##範": 5232,
      "##徳": 5233,
      "##雄": 5234,
      "##蘭": 5235,
      "##礼": 5236,
      "##玲": 5237,
      "##阿": 5238,
      "##佐": 5239,
      "##梨": 5240,
      "##涼": 5241,
      "##遼": 5242,
      "##哉": 5243,
      "##竜": 5244,
      "##左": 5245,
      "##莉": 5246,
      "##聡": 5247,
      "##紗": 5248,
      "##冶": 5249,
      "##整": 5250,
      "##晴": 5251,
      "##雨": 5252,
      "##節": 5253,
      "##生": 5254,
      "##繁": 5255,
      "##伸": 5256,
      "##慎": 5257,
      "##乗": 5258,
      "##深": 5259,
      "##水": 5260,
      "##信": 5261,
      "##詩": 5262,
      "##織": 5263,
      "##四": 5264,
      "##静": 5265,
      "##翔": 5266,
      "##鐘": 5267,
      "##也": 5268,
      "##総": 5269,
      "##兵": 5270,
      "##亨": 5271,
      "##彦": 5272,
      "##隆": 5273,
      "##た": 5274,
      "##孝": 5275,
      "##紳": 5276,
      "##則": 5277,
      "##高": 5278,
      "##敏": 5279,
      "##岳": 5280,
      "##武": 5281,
      "##赳": 5282,
      "##臣": 5283,
      "##馬": 5284,
      "##貞": 5285,
      "##輝": 5286,
      "##悦": 5287,
      "##哲": 5288,
      "##友": 5289,
      "##広": 5290,
      "##智": 5291,
      "##雋": 5292,
      "##吉": 5293,
      "##豊": 5294,
      "##勤": 5295,
      "##渉": 5296,
      "##康": 5297,
      "##靖": 5298,
      "##倖": 5299,
      "##庸": 5300,
      "##嘉": 5301,
      "##佳": 5302,
      "##喜": 5303,
      "##陽": 5304,
      "##佑": 5305,
      "##助": 5306,
      "##優": 5307,
      "##汰": 5308,
      "##津": 5309,
      "##啓": 5310,
      "##ᄂ": 5311,
      "##ᅴ": 5312,
      "##ᄉ": 5313,
      "##上": 5314,
      "##福": 5315,
      "##田": 5316,
      "##ふ": 5317,
      "##く": 5318,
      "##ひ": 5319,
      "##て": 5320,
      "##；": 5321,
      "##华": 5322,
      "##住": 5323,
      "##酒": 5324,
      "##店": 5325,
      "##集": 5326,
      "##团": 5327,
      "##團": 5328,
      "##ə": 5329,
      "##ᄐ": 5330,
      "##ᅢ": 5331,
      "##ᅣ": 5332,
      "##ᆯ": 5333,
      "##日": 5334,
      "##成": 5335,
      "##ノ": 5336,
      "##は": 5337,
      "##嘘": 5338,
      "##を": 5339,
      "##愛": 5340,
      "##し": 5341,
      "##る": 5342,
      "##星": 5343,
      "##よ": 5344,
      "##ほ": 5345,
      "##—": 5346,
      "##荒": 5347,
      "##川": 5348,
      "##畠": 5349,
      "##け": 5350,
      "##ᄑ": 5351,
      "##ᆸ": 5352,
      "##倉": 5353,
      "##保": 5354,
      "##ら": 5355,
      "##پ": 5356,
      "##芦": 5357,
      "##谷": 5358,
      "##恒": 5359,
      "##せ": 5360,
      "##わ": 5361,
      "##へ": 5362,
      "##١": 5363,
      "##٩": 5364,
      "##٢": 5365,
      "##٠": 5366,
      "##٦": 5367,
      "##′": 5368,
      "##т": 5369,
      "##ᄎ": 5370,
      "##ᅮ": 5371,
      "##ᅦ": 5372,
      "##ᄒ": 5373,
      "##ᅭ": 5374,
      "##†": 5375,
      "##٤": 5376,
      "##ß": 5377,
      "##}": 5378,
      "##ᅧ": 5379,
      "##向": 5380,
      "##雲": 5381,
      "##स": 5382,
      "##ई": 5383,
      "##म": 5384,
      "##य": 5385,
      "##र": 5386,
      "##œ": 5387,
      "##­": 5388,
      "##κ": 5389,
      "##θ": 5390,
      "##ᄏ": 5391,
      "##ᅪ": 5392,
      "##ξ": 5393,
      "##ھ": 5394,
      "##ۃ": 5395,
      "##۔": 5396,
      "##民": 5397,
      "##主": 5398,
      "##@": 5399,
      "##ј": 5400,
      "##у": 5401,
      "##青": 5402,
      "##森": 5403,
      "##ね": 5404,
      "##祭": 5405,
      "##弖": 5406,
      "##流": 5407,
      "##為": 5408,
      "##蓋": 5409,
      "##\t": 5410,
      "##ᅬ": 5411,
      "##サ": 5412,
      "##茶": 5413,
      "##花": 5414,
      "##ں": 5415,
      "##ҡ": 5416,
      "##χ": 5417,
      "##ٱ": 5418,
      "##х": 5419,
      "##ф": 5420,
      "##ц": 5421,
      "##і": 5422,
      "##ե": 5423,
      "##ր": 5424,
      "##ո": 5425,
      "##ւ": 5426,
      "##ա": 5427,
      "##ն": 5428,
      "##դ": 5429,
      "##钱": 5430,
      "##伟": 5431,
      "##长": 5432,
      "##錢": 5433,
      "##偉": 5434,
      "##อ": 5435,
      "##า": 5436,
      "##ณ": 5437,
      "##จ": 5438,
      "##ก": 5439,
      "##ร": 5440,
      "##ต": 5441,
      "##น": 5442,
      "##โ": 5443,
      "##ส": 5444,
      "##ท": 5445,
      "##原": 5446,
      "##я": 5447,
      "##є": 5448,
      "##コ": 5449,
      "##ス": 5450,
      "##モ": 5451,
      "##א": 5452,
      "##ב": 5453,
      "##ג": 5454,
      "##ɐ": 5455,
      "##ˈ": 5456,
      "## ": 5457,
      "##§": 5458,
      "##ŋ": 5459,
      "##﴿": 5460,
      "##﴾": 5461,
      "##数": 5462,
      "##^": 5463,
      "##≈": 5464,
      "##‑": 5465,
      "##٣": 5466,
      "##小": 5467,
      "##杉": 5468,
      "##お": 5469,
      "##ɔ": 5470,
      "##ʁ": 5471,
      "##ʒ": 5472,
      "##連": 5473,
      "##合": 5474,
      "##艦": 5475,
      "##隊": 5476,
      "##参": 5477,
      "##謀": 5478,
      "##本": 5479,
      "##部": 5480,
      "##٥": 5481,
      "##≤": 5482,
      "##口": 5483,
      "##ᅲ": 5484,
      "##ん": 5485,
      "##秋": 5486,
      "##魚": 5487,
      "##イ": 5488,
      "##ラ": 5489,
      "##羅": 5490,
      "##ᄁ": 5491,
      "##鱼": 5492,
      "##±": 5493,
      "##‹": 5494,
      "##›": 5495,
      "##安": 5496,
      "##−": 5497,
      "##ڠ": 5498,
      "##ݢ": 5499,
      "##少": 5500,
      "##林": 5501,
      "##十": 5502,
      "##六": 5503,
      "##房": 5504,
      "##郵": 5505,
      "##便": 5506,
      "##株": 5507,
      "##式": 5508,
      "##会": 5509,
      "##社": 5510,
      "##ɡ": 5511,
      "##ː": 5512,
      "##ɪ": 5513,
      "##ж": 5514,
      "##ш": 5515,
      "##ڭ": 5516,
      "##⦵": 5517,
      "## ": 5518,
      "##⊖": 5519,
      "##​": 5520,
      "##ᆭ": 5521,
      "##𐒋": 5522,
      "##𐒕": 5523,
      "##𐒆": 5524,
      "##𐒖": 5525,
      "##𐒑": 5526,
      "##𐒘": 5527,
      "##𐒇": 5528,
      "##𐒏": 5529,
      "##𐒈": 5530,
      "##𐒝": 5531,
      "##𐒛": 5532,
      "##𐒐": 5533,
      "##𐒜": 5534,
      "##李": 5535,
      "##約": 5536,
      "##瑟": 5537,
      "##研": 5538,
      "##究": 5539,
      "##所": 5540,
      "##ゆ": 5541,
      "##北": 5542,
      "##ט": 5543,
      "##ס": 5544,
      "##ת": 5545,
      "##נ": 5546,
      "##ש": 5547,
      "##ר": 5548,
      "##ז": 5549,
      "##万": 5550,
      "##£": 5551,
      "##黒": 5552,
      "##鉄": 5553,
      "##ァ": 5554,
      "##ミ": 5555,
      "##リ": 5556,
      "##オ": 5557,
      "##珠": 5558,
      "##障": 5559,
      "##波": 5560,
      "##蓮": 5561,
      "##牢": 5562,
      "##弾": 5563,
      "##緋": 5564,
      "##刃": 5565,
      "##色": 5566,
      "##輪": 5567,
      "##廻": 5568,
      "##有": 5569,
      "##栖": 5570,
      "##院": 5571,
      "##凪": 5572,
      "##影": 5573,
      "##縫": 5574,
      "##陰": 5575,
      "##辻": 5576,
      "##絢": 5577,
      "##瀬": 5578,
      "##爪": 5579,
      "##風": 5580,
      "##痕": 5581,
      "##堂": 5582,
      "##雷": 5583,
      "##切": 5584,
      "##疾": 5585,
      "##迅": 5586,
      "##巌": 5587,
      "##王": 5588,
      "##剣": 5589,
      "##帝": 5590,
      "##エ": 5591,
      "##ル": 5592,
      "##ワ": 5593,
      "##諸": 5594,
      "##桐": 5595,
      "##矢": 5596,
      "##狩": 5597,
      "##驟": 5598,
      "##烈": 5599,
      "##閃": 5600,
      "##敷": 5601,
      "##蔵": 5602,
      "##兎": 5603,
      "##丸": 5604,
      "##恋": 5605,
      "##々": 5606,
      "##御": 5607,
      "##祓": 5608,
      "##泡": 5609,
      "##沫": 5610,
      "##ナ": 5611,
      "##タ": 5612,
      "##յ": 5613,
      "##ի": 5614,
      "##վ": 5615,
      "##ք": 5616,
      "##٧": 5617,
      "##輔": 5618,
      "##根": 5619,
      "##絵": 5620,
      "##第": 5621,
      "##ハ": 5622,
      "##ロ": 5623,
      "##ホ": 5624,
      "##ッ": 5625,
      "##戦": 5626,
      "##秀": 5627,
      "##　": 5628,
      "##洸": 5629,
      "##ろ": 5630,
      "##ⵜ": 5631,
      "##ⵉ": 5632,
      "##ⵙ": 5633,
      "##ⴹ": 5634,
      "##ⵔ": 5635,
      "##ⵏ": 5636,
      "##訓": 5637,
      "##練": 5638,
      "##巴": 5639,
      "##פ": 5640,
      "##ד": 5641,
      "##ח": 5642,
      "##מ": 5643,
      "##ケ": 5644,
      "##ム": 5645,
      "##۱": 5646,
      "##۳": 5647,
      "##۷": 5648,
      "##۴": 5649,
      "##۲": 5650,
      "##۵": 5651,
      "##۹": 5652,
      "##۰": 5653,
      "##ङ": 5654,
      "##ग": 5655,
      "##ल": 5656,
      "##恩": 5657,
      "##賜": 5658,
      "##煙": 5659,
      "##草": 5660,
      "##料": 5661,
      "##特": 5662,
      "##製": 5663,
      "##金": 5664,
      "##も": 5665,
      "##妃": 5666,
      "##ю": 5667,
      "##ҳ": 5668,
      "##ҧ": 5669,
      "##ვ": 5670,
      "##ე": 5671,
      "##რ": 5672,
      "##ი": 5673,
      "##ო": 5674,
      "##კ": 5675,
      "##ნ": 5676,
      "##ს": 5677,
      "##მ": 5678,
      "##ღ": 5679,
      "##ɲ": 5680,
      "##未": 5681,
      "##³": 5682,
      "##分": 5683,
      "##寺": 5684,
      "##町": 5685,
      "##β": 5686,
      "##ۈ": 5687,
      "##西": 5688,
      "##に": 5689,
      "##八": 5690,
      "##重": 5691,
      "##⁄": 5692,
      "##桜": 5693,
      "##ʰ": 5694,
      "##ɑ": 5695,
      "##ɛ": 5696,
      "##כ": 5697,
      "##岩": 5698,
      "##羊": 5699,
      "##ऋ": 5700,
      "##ष": 5701,
      "##भ": 5702,
      "##द": 5703,
      "##व": 5704,
      "##प": 5705,
      "##त": 5706,
      "##多": 5707,
      "##力": 5708,
      "##食": 5709,
      "##摩": 5710,
      "##拽": 5711,
      "##滅": 5712,
      "##靈": 5713,
      "##改": 5714,
      "##撒": 5715,
      "##斯": 5716,
      "##岡": 5717,
      "##甲": 5718,
      "##斐": 5719,
      "##ʼ": 5720,
      "##ǂ": 5721,
      "##қ": 5722,
      "##ځ": 5723,
      "##؜": 5724,
      "##‘": 5725,
      "##中": 5726,
      "##э": 5727,
      "##獵": 5728,
      "##鷹": 5729,
      "##號": 5730,
      "##老": 5731,
      "##細": 5732,
      "##彬": 5733,
      "##沈": 5734,
      "##妮": 5735,
      "##昆": 5736,
      "##探": 5737,
      "##ψ": 5738,
      "##𐤊": 5739,
      "##𐤌": 5740,
      "##𐤔": 5741,
      "##𒀭": 5742,
      "##𒂵": 5743,
      "##𒈪": 5744,
      "##𒅖": 5745,
      "##𒌋": 5746,
      "##𒄥": 5747,
      "##𒅗": 5748,
      "##𒄠": 5749,
      "##𒈲": 5750,
      "##𒈾": 5751,
      "##𒋗": 5752,
      "##𒋙": 5753,
      "##𒈠": 5754,
      "##𒀀": 5755,
      "##𒋢": 5756,
      "##𐤏": 5757,
      "##𐤕": 5758,
      "##𐤓": 5759,
      "##ץ": 5760,
      "##江": 5761,
      "##基": 5762,
      "##鎬": 5763,
      "##श": 5764,
      "##क": 5765,
      "##न": 5766,
      "##周": 5767,
      "##强": 5768,
      "##酸": 5769,
      "##圖": 5770,
      "##嘗": 5771,
      "##醋": 5772,
      "##翁": 5773,
      "##尝": 5774,
      "##图": 5775,
      "##年": 5776,
      "##メ": 5777,
      "##″": 5778,
      "##↔": 5779,
      "##ह": 5780,
      "##अ": 5781,
      "##½": 5782,
      "##号": 5783,
      "##ヨ": 5784,
      "##थ": 5785,
      "##ख": 5786,
      "##ट": 5787,
      "##फ": 5788,
      "##ज": 5789,
      "##च": 5790,
      "##ध": 5791,
      "##ɣ": 5792,
      "##ہ": 5793,
      "##増": 5794,
      "##伤": 5795,
      "##学": 5796,
      "##稔": 5797,
      "##記": 5798,
      "##🏆": 5799,
      "##💙": 5800,
      "##🦅": 5801,
      "##📋": 5802,
      "##耕": 5803,
      "##浦": 5804,
      "##行": 5805,
      "##۸": 5806,
      "##彭": 5807,
      "##桓": 5808,
      "##稲": 5809,
      "##葉": 5810,
      "##™": 5811,
      "##旅": 5812,
      "##攻": 5813,
      "##囲": 5814,
      "##絶": 5815,
      "##対": 5816,
      "##彼": 5817,
      "##氏": 5818,
      "##。": 5819,
      "##麦": 5820,
      "##麥": 5821,
      "##汤": 5822,
      "##む": 5823,
      "##贝": 5824,
      "##柴": 5825,
      "##皆": 5826,
      "##夏": 5827,
      "##穂": 5828,
      "##ژ": 5829,
      "##®": 5830,
      "##橋": 5831,
      "##徹": 5832,
      "##座": 5833,
      "##標": 5834,
      "##緯": 5835,
      "##度": 5836,
      "##秒": 5837,
      "##経": 5838,
      "##ғ": 5839,
      "##ә": 5840,
      "##ұ": 5841,
      "##ݘ": 5842,
      "##木": 5843,
      "##廣": 5844,
      "##彰": 5845,
      "##宝": 5846,
      "##仙": 5847,
      "##♦": 5848,
      "##ण": 5849,
      "##鮮": 5850,
      "##京": 5851,
      "##崎": 5852,
      "##º": 5853,
      "##׀": 5854,
      "##《": 5855,
      "##ћ": 5856,
      "##đ": 5857,
      "##€": 5858,
      "##ɨ": 5859,
      "##ˌ": 5860,
      "##ɖ": 5861,
      "##ݕ": 5862,
      "##ว": 5863,
      "##ม": 5864,
      "##ำ": 5865,
      "##ผ": 5866,
      "##ไ": 5867,
      "##ย": 5868,
      "##马": 5869,
      "##呈": 5870,
      "##祥": 5871,
      "##慶": 5872,
      "##´": 5873,
      "##：": 5874,
      "##）": 5875,
      "##喬": 5876,
      "##ょ": 5877,
      "##ϝ": 5878,
      "##լ": 5879,
      "##չ": 5880,
      "##մ": 5881,
      "##ջ": 5882,
      "##ց": 5883,
      "##法": 5884,
      "##迪": 5885,
      "##艾": 5886,
      "##哈": 5887,
      "##邁": 5888,
      "##德": 5889,
      "##賭": 5890,
      "##ク": 5891,
      "##双": 5892,
      "##－": 5893,
      "##ツ": 5894,
      "##⸵": 5895,
      "##ャ": 5896,
      "##←": 5897,
      "##須": 5898,
      "##器": 5899,
      "##後": 5900,
      "##守": 5901,
      "##祝": 5902,
      "##土": 5903,
      "##進": 5904,
      "##ऐ": 5905,
      "##兰": 5906,
      "##娟": 5907,
      "##≥": 5908,
      "##∞": 5909,
      "##竈": 5910,
      "##門": 5911,
      "##禰": 5912,
      "##豆": 5913,
      "##щ": 5914,
      "##寛": 5915,
      "##手": 5916,
      "##薫": 5917,
      "##洋": 5918,
      "##新": 5919,
      "##⊕": 5920,
      "##∥": 5921,
      "##琳": 5922,
      "##派": 5923,
      "##宗": 5924,
      "##神": 5925,
      "##図": 5926,
      "##松": 5927,
      "##島": 5928,
      "##紅": 5929,
      "##白": 5930,
      "##梅": 5931,
      "##南": 5932,
      "##画": 5933,
      "##村": 5934,
      "##克": 5935,
      "##市": 5936,
      "##那": 5937,
      "##▪": 5938,
      "##₂": 5939,
      "##れ": 5940,
      "##走": 5941,
      "##火": 5942,
      "##入": 5943,
      "##魔": 5944,
      "##氣": 5945,
      "##功": 5946,
      "##偏": 5947,
      "##差": 5948,
      "##缩": 5949,
      "##阳": 5950,
      "##縮": 5951,
      "##沢": 5952,
      "##茂": 5953,
      "##ᅨ": 5954,
      "##เ": 5955,
      "##พ": 5956,
      "##ธ": 5957,
      "##ʌ": 5958,
      "##џ": 5959,
      "##圩": 5960,
      "##フ": 5961,
      "##ユ": 5962,
      "##「": 5963,
      "##」": 5964,
      "##‼": 5965,
      "##内": 5966,
      "##チ": 5967,
      "##作": 5968,
      "##ٹ": 5969,
      "##官": 5970,
      "##柏": 5971,
      "##休": 5972,
      "##父": 5973,
      "##殷": 5974,
      "##ך": 5975,
      "##ᄍ": 5976,
      "##ᅯ": 5977,
      "##近": 5978,
      "##キ": 5979,
      "##財": 5980,
      "##務": 5981,
      "##ڍ": 5982,
      "##ڊ": 5983,
      "##♥": 5984,
      "##🡐": 5985,
      "##🠘": 5986,
      "##№": 5987,
      "##衛": 5988,
      "##利": 5989,
      "##姚": 5990,
      "##斌": 5991,
      "##ʾ": 5992,
      "##ᆰ": 5993,
      "##µ": 5994,
      "##ʃ": 5995,
      "##古": 5996,
      "##鏘": 5997,
      "##宮": 5998,
      "##尊": 5999,
      "##栢": 6000,
      "##五": 6001,
      "##常": 6002,
      "##講": 6003,
      "##আ": 6004,
      "##ব": 6005,
      "##দ": 6006,
      "##ল": 6007,
      "##ম": 6008,
      "##ত": 6009,
      "##ন": 6010,
      "##খ": 6011,
      "##স": 6012,
      "##র": 6013,
      "##湖": 6014,
      "##ᄄ": 6015,
      "##ᅱ": 6016,
      "##片": 6017,
      "##ʊ": 6018,
      "##ֆ": 6019,
      "##ս": 6020,
      "##հ": 6021,
      "##ռ": 6022,
      "##鄂": 6023,
      "##伦": 6024,
      "##春": 6025,
      "##族": 6026,
      "##倫": 6027,
      "##斜": 6028,
      "##柱": 6029,
      "##孟": 6030,
      "##●": 6031,
      "##舟": 6032,
      "##ם": 6033,
      "##ʹ": 6034,
      "##њ": 6035,
      "##🧄": 6036,
      "##১": 6037,
      "##ও": 6038,
      "##জ": 6039,
      "##ঐ": 6040,
      "##শ": 6041,
      "##ষ": 6042,
      "##এ": 6043,
      "##ঈ": 6044,
      "##ই": 6045,
      "##প": 6046,
      "##ক": 6047,
      "##য": 6048,
      "##গ": 6049,
      "##।": 6050,
      "##হ": 6051,
      "##ভ": 6052,
      "##ঙ": 6053,
      "##২": 6054,
      "##ড": 6055,
      "##ছ": 6056,
      "##৩": 6057,
      "##৪": 6058,
      "##উ": 6059,
      "##ফ": 6060,
      "##৫": 6061,
      "##ঢ": 6062,
      "##৬": 6063,
      "##ট": 6064,
      "##থ": 6065,
      "##ʻ": 6066,
      "##ܝ": 6067,
      "##ܥ": 6068,
      "##ܩ": 6069,
      "##ܘ": 6070,
      "##ܒ": 6071,
      "##ܢ": 6072,
      "##ܨ": 6073,
      "##ܐ": 6074,
      "##ʿ": 6075,
      "##⇌": 6076,
      "##ტ": 6077,
      "##ა": 6078,
      "##დ": 6079,
      "##ლ": 6080,
      "##⅔": 6081,
      "##ъ": 6082,
      "##巩": 6083,
      "##瓯": 6084,
      "##鞏": 6085,
      "##甌": 6086,
      "##國": 6087,
      "##樂": 6088,
      "##／": 6089,
      "##乐": 6090,
      "##固": 6091,
      "##杯": 6092,
      "##天": 6093,
      "##ヤ": 6094,
      "##ュ": 6095,
      "##通": 6096,
      "##濱": 6097,
      "##ɞ": 6098,
      "##植": 6099,
      "##誌": 6100,
      "##至": 6101,
      "##物": 6102,
      "##間": 6103,
      "##緑": 6104,
      "##回": 6105,
      "##復": 6106,
      "##処": 6107,
      "##方": 6108,
      "##箋": 6109,
      "##鎮": 6110,
      "##潮": 6111,
      "##廖": 6112,
      "##城": 6113,
      "##早": 6114,
      "##✝": 6115,
      "##綺": 6116,
      "##音": 6117,
      "##牧": 6118,
      "##志": 6119,
      "##寿": 6120,
      "##‡": 6121,
      "##袁": 6122,
      "##ड": 6123,
      "##ब": 6124,
      "##ᄈ": 6125,
      "##የ": 6126,
      "##ማ": 6127,
      "##ሰ": 6128,
      "##ብ": 6129,
      "##ች": 6130,
      "##ሎ": 6131,
      "##ታ": 6132,
      "##ያ": 6133,
      "##ለ": 6134,
      "##ው": 6135,
      "##አ": 6136,
      "##ን": 6137,
      "##በ": 6138,
      "##ሳ": 6139,
      "##㈜": 6140,
      "##۶": 6141,
      "##吴": 6142,
      "##树": 6143,
      "##¸": 6144,
      "##ې": 6145,
      "##؏": 6146,
      "##ٵ": 6147,
      "##ە": 6148,
      "##ۆ": 6149,
      "##爾": 6150,
      "##汗": 6151,
      "##池": 6152,
      "##尻": 6153,
      "##茉": 6154,
      "##‐": 6155,
      "##ݴ": 6156,
      "##書": 6157,
      "##书": 6158,
      "##藝": 6159,
      "##術": 6160,
      "##艺": 6161,
      "##术": 6162,
      "##鼎": 6163,
      "##敦": 6164,
      "##觚": 6165,
      "##觥": 6166,
      "##簋": 6167,
      "##壶": 6168,
      "##斝": 6169,
      "##爵": 6170,
      "##匜": 6171,
      "##卣": 6172,
      "##彝": 6173,
      "##篆": 6174,
      "##隸": 6175,
      "##隶": 6176,
      "##楷": 6177,
      "##骨": 6178,
      "##广": 6179,
      "##芝": 6180,
      "##鍾": 6181,
      "##繇": 6182,
      "##歐": 6183,
      "##詢": 6184,
      "##虞": 6185,
      "##世": 6186,
      "##褚": 6187,
      "##遂": 6188,
      "##懷": 6189,
      "##唐": 6190,
      "##冰": 6191,
      "##旭": 6192,
      "##顏": 6193,
      "##卿": 6194,
      "##素": 6195,
      "##柳": 6196,
      "##權": 6197,
      "##杜": 6198,
      "##親": 6199,
      "##ᄊ": 6200,
      "##曙": 6201,
      "##汉": 6202,
      "##张": 6203,
      "##船": 6204,
      "##舶": 6205,
      "##厂": 6206,
      "##陶": 6207,
      "##相": 6208,
      "##海": 6209,
      "##蛟": 6210,
      "##龍": 6211,
      "##ゅ": 6212,
      "##１": 6213,
      "##２": 6214,
      "##３": 6215,
      "##©": 6216,
      "##起": 6217,
      "##鈴": 6218,
      "##ݠ": 6219,
      "##沖": 6220,
      "##縄": 6221,
      "##決": 6222,
      "##激": 6223,
      "##動": 6224,
      "##ⴰ": 6225,
      "##ⴱ": 6226,
      "##ⵍ": 6227,
      "##ⵎ": 6228,
      "##љ": 6229,
      "##♂": 6230,
      "##ٳ": 6231,
      "##⊙": 6232,
      "##久": 6233,
      "##米": 6234,
      "##め": 6235,
      "##٬": 6236,
      "##病": 6237,
      "##鬱": 6238,
      "##憤": 6239,
      "##抑": 6240,
      "##ґ": 6241,
      "##ⵡ": 6242,
      "##ⴽ": 6243,
      "##ⴷ": 6244,
      "##ⵢ": 6245,
      "##ⵛ": 6246,
      "##ⵃ": 6247,
      "##ܦ": 6248,
      "##ܠ": 6249,
      "##ܣ": 6250,
      "##ܡ": 6251,
      "##ܟ": 6252,
      "##ག": 6253,
      "##ང": 6254,
      "##ས": 6255,
      "##་": 6256,
      "##ད": 6257,
      "##ཀ": 6258,
      "##ར": 6259,
      "##ན": 6260,
      "##མ": 6261,
      "##გ": 6262,
      "##ბ": 6263,
      "##ڵ": 6264,
      "##ێ": 6265,
      "##ɒ": 6266,
      "##∧": 6267,
      "##￼": 6268,
      "##躺": 6269,
      "##的": 6270,
      "##韭": 6271,
      "##不": 6272,
      "##好": 6273,
      "##割": 6274,
      "##站": 6275,
      "##客": 6276,
      "##淀": 6277,
      "##黄": 6278,
      "##庄": 6279,
      "##陈": 6280,
      "##东": 6281,
      "##陳": 6282,
      "##宿": 6283,
      "##ڕ": 6284,
      "##þ": 6285,
      "##亮": 6286,
      "##》": 6287,
      "##董": 6288,
      "##必": 6289,
      "##ヒ": 6290,
      "##烏": 6291,
      "##蠻": 6292,
      "##夷": 6293,
      "##自": 6294,
      "##謝": 6295,
      "##郍": 6296,
      "##钢": 6297,
      "##萬": 6298,
      "##鋼": 6299,
      "##謎": 6300,
      "##வ": 6301,
      "##ள": 6302,
      "##ப": 6303,
      "##ர": 6304,
      "##⸙": 6305,
      "##裸": 6306,
      "##朱": 6307,
      "##鑫": 6308,
      "##尼": 6309,
      "##⭐": 6310,
      "##🍅": 6311,
      "##麗": 6312,
      "##皇": 6313,
      "##后": 6314,
      "##吾": 6315,
      "##阴": 6316,
      "##睦": 6317,
      "##鄧": 6318,
      "##興": 6319,
      "##就": 6320,
      "##識": 6321,
      "##訢": 6322,
      "##劉": 6323,
      "##楊": 6324,
      "##疆": 6325,
      "##郭": 6326,
      "##況": 6327,
      "##莊": 6328,
      "##豐": 6329,
      "##綬": 6330,
      "##ජ": 6331,
      "##එ": 6332,
      "##ම": 6333,
      "##ස": 6334,
      "##ල": 6335,
      "##ஜ": 6336,
      "##எ": 6337,
      "##ம": 6338,
      "##ஸ": 6339,
      "##ல": 6340,
      "##ᆺ": 6341,
      "##襦": 6342,
      "##屋": 6343,
      "##轎": 6344,
      "##↓": 6345,
      "##ڌ": 6346,
      "##उ": 6347,
      "##ਮ": 6348,
      "##ਲ": 6349,
      "##ਨ": 6350,
      "##ਉ": 6351,
      "##ਬ": 6352,
      "##ਦ": 6353,
      "##菅": 6354,
      "##館": 6355,
      "##専": 6356,
      "##校": 6357,
      "##ζ": 6358,
      "##☆": 6359,
      "##炭": 6360,
      "##在": 6361,
      "##ꦩ": 6362,
      "##ꦤ": 6363,
      "##ꦢ": 6364,
      "##ꦫ": 6365,
      "##ꦗ": 6366,
      "##栀": 6367,
      "##开": 6368,
      "##今": 6369,
      "##≡": 6370,
      "##奥": 6371,
      "##将": 6372,
      "##ヘ": 6373,
      "##仲": 6374,
      "##っ": 6375,
      "##［": 6376,
      "##材": 6377,
      "##採": 6378,
      "##編": 6379,
      "##］": 6380,
      "##セ": 6381,
      "##宇": 6382,
      "##事": 6383,
      "##件": 6384,
      "##ے": 6385,
      "##↑": 6386,
      "##∆": 6387,
      "##芙": 6388,
      "##蓉": 6389,
      "##▽": 6390,
      "##ף": 6391,
      "##髪": 6392,
      "##萌": 6393,
      "##渡": 6394,
      "##辺": 6395,
      "##բ": 6396,
      "##河": 6397,
      "##畑": 6398,
      "##ڨ": 6399,
      "##ڪ": 6400,
      "##ネ": 6401,
      "##ェ": 6402,
      "##幻": 6403,
      "##閻": 6404,
      "##♿": 6405,
      "##¡": 6406,
      "##እ": 6407,
      "##ደ": 6408,
      "##ላ": 6409,
      "##陵": 6410,
      "##垣": 6411,
      "##纏": 6412,
      "##ܬ": 6413,
      "##ܕ": 6414,
      "##ܫ": 6415,
      "##⅓": 6416,
      "##群": 6417,
      "##私": 6418,
      "##空": 6419,
      "##漢": 6420,
      "##軍": 6421,
      "##₹": 6422,
      "##浙": 6423,
      "##科": 6424,
      "##心": 6425,
      "##學": 6426,
      "##數": 6427,
      "##運": 6428,
      "##丈": 6429,
      "##言": 6430,
      "##体": 6431,
      "##形": 6432,
      "##終": 6433,
      "##止": 6434,
      "##気": 6435,
      "##杨": 6436,
      "##薏": 6437,
      "##レ": 6438,
      "##見": 6439,
      "##ぃ": 6440,
      "##孔": 6441,
      "##庙": 6442,
      "##操": 6443,
      "##ₓ": 6444,
      "##ʷ": 6445,
      "##₃": 6446,
      "##₁": 6447,
      "##竹": 6448,
      "##⁧": 6449,
      "##⁩": 6450,
      "##⁠": 6451,
      "##傅": 6452,
      "##ง": 6453,
      "##ห": 6454,
      "##ซ": 6455,
      "##ค": 6456,
      "##ด": 6457,
      "##ล": 6458,
      "##অ": 6459,
      "##ৎ": 6460,
      "##ধ": 6461,
      "##散": 6462,
      "##打": 6463,
      "##ܚ": 6464,
      "##浮": 6465,
      "##憂": 6466,
      "##嶽": 6467,
      "##麓": 6468,
      "##菱": 6469,
      "##⟨": 6470,
      "##⟩": 6471,
      "##囚": 6472,
      "##氷": 6473,
      "##¤": 6474,
      "##師": 6475,
      "##政": 6476,
      "##樫": 6477,
      "##豪": 6478,
      "##害": 6479,
      "##感": 6480,
      "##情": 6481,
      "##亿": 6482,
      "##թ": 6483,
      "##ゥ": 6484,
      "##ᠻ": 6485,
      "##ᠦ": 6486,
      "##ᠷ": 6487,
      "##ᠯ": 6488,
      "##ᠳ": 6489,
      "##ᠠ": 6490,
      "##ᠶ": 6491,
      "##府": 6492,
      "##ⵊ": 6493,
      "##ⵚ": 6494,
      "##ⵕ": 6495,
      "##能": 6496,
      "##登": 6497,
      "##凛": 6498,
      "##謁": 6499,
      "##廟": 6500,
      "##ϲ": 6501,
      "##𝔓": 6502,
      "##÷": 6503,
      "##桂": 6504,
      "##˚": 6505,
      "##ஆ": 6506,
      "##ய": 6507,
      "##ச": 6508,
      "##க": 6509,
      "##த": 6510,
      "##ආ": 6511,
      "##ර": 6512,
      "##ය": 6513,
      "##ච": 6514,
      "##ක": 6515,
      "##ව": 6516,
      "##ත": 6517,
      "##ශ": 6518,
      "##球": 6519,
      "##元": 6520,
      "##祖": 6521,
      "##才": 6522,
      "##济": 6523,
      "##与": 6524,
      "##制": 6525,
      "##ᐃ": 6526,
      "##ᓄ": 6527,
      "##ᑦ": 6528,
      "##ᑕ": 6529,
      "##ᑯ": 6530,
      "##ᓐ": 6531,
      "##ᓇ": 6532,
      "##ᕋ": 6533,
      "##ᓴ": 6534,
      "##ᓕ": 6535,
      "##ᕆ": 6536,
      "##ᔨ": 6537,
      "##外": 6538,
      "##字": 6539,
      "##雪": 6540,
      "##儒": 6541,
      "##家": 6542,
      "##萱": 6543,
      "##磨": 6544,
      "##勇": 6545,
      "##斗": 6546,
      "##ɾ": 6547,
      "##烧": 6548,
      "##烤": 6549,
      "##տ": 6550,
      "##գ": 6551,
      "##կ": 6552,
      "##ճ": 6553,
      "##ծ": 6554,
      "##՝": 6555,
      "##պ": 6556,
      "##ը": 6557,
      "##և": 6558,
      "##塔": 6559,
      "##先": 6560,
      "##朝": 6561,
      "##遠": 6562,
      "##建": 6563,
      "##奄": 6564,
      "##覚": 6565,
      "##密": 6566,
      "##牙": 6567,
      "##覇": 6568,
      "##勢": 6569,
      "##頭": 6570,
      "##弥": 6571,
      "##計": 6572,
      "##赤": 6573,
      "##蜂": 6574,
      "##於": 6575,
      "##共": 6576,
      "##地": 6577,
      "##歴": 6578,
      "##ݭ": 6579,
      "##𐩹": 6580,
      "##𐩱": 6581,
      "##𐩡": 6582,
      "##𐩣": 6583,
      "##菊": 6584,
      "##ญ": 6585,
      "##ภ": 6586,
      "##ข": 6587,
      "##者": 6588,
      "##異": 6589,
      "##聞": 6590,
      "##印": 6591,
      "##、": 6592,
      "##積": 6593,
      "##純": 6594,
      "##¾": 6595,
      "##宅": 6596,
      "##꞉": 6597,
      "##ཕ": 6598,
      "##པ": 6599,
      "##¥": 6600,
      "##下": 6601,
      "##চ": 6602,
      "##憲": 6603,
      "##念": 6604,
      "##𐤀": 6605,
      "##℃": 6606,
      "##条": 6607,
      "##兼": 6608,
      "##इ": 6609,
      "##医": 6610,
      "##𑀓": 6611,
      "##𑀯": 6612,
      "##𑀢": 6613,
      "##聖": 6614,
      "##照": 6615,
      "##月": 6616,
      "##陸": 6617,
      "##臺": 6618,
      "##駘": 6619,
      "##黃": 6620,
      "##商": 6621,
      "##狄": 6622,
      "##戎": 6623,
      "##鶯": 6624,
      "##嬴": 6625,
      "##姓": 6626,
      "##皋": 6627,
      "##徐": 6628,
      "##姬": 6629,
      "##昌": 6630,
      "##意": 6631,
      "##顓": 6632,
      "##頊": 6633,
      "##業": 6634,
      "##莘": 6635,
      "##費": 6636,
      "##卷": 6637,
      "##章": 6638,
      "##吳": 6639,
      "##惠": 6640,
      "##樊": 6641,
      "##定": 6642,
      "##连": 6643,
      "##參": 6644,
      "##胡": 6645,
      "##铿": 6646,
      "##求": 6647,
      "##鄶": 6648,
      "##晏": 6649,
      "##曹": 6650,
      "##遭": 6651,
      "##邾": 6652,
      "##季": 6653,
      "##楚": 6654,
      "##堯": 6655,
      "##陆": 6656,
      "##昊": 6657,
      "##嬌": 6658,
      "##極": 6659,
      "##揮": 6660,
      "##昧": 6661,
      "##汾": 6662,
      "##州": 6663,
      "##蓐": 6664,
      "##姒": 6665,
      "##熙": 6666,
      "##侯": 6667,
      "##伯": 6668,
      "##益": 6669,
      "##潢": 6670,
      "##閩": 6671,
      "##鄭": 6672,
      "##詹": 6673,
      "##邱": 6674,
      "##何": 6675,
      "##考": 6676,
      "##承": 6677,
      "##彥": 6678,
      "##婆": 6679,
      "##週": 6680,
      "##飛": 6681,
      "##鴻": 6682,
      "##虎": 6683,
      "##望": 6684,
      "##濟": 6685,
      "##汝": 6686,
      "##屏": 6687,
      "##庭": 6688,
      "##堅": 6689,
      "##宋": 6690,
      "##蘇": 6691,
      "##歇": 6692,
      "##羲": 6693,
      "##餘": 6694,
      "##初": 6695,
      "##遵": 6696,
      "##百": 6697,
      "##韬": 6698,
      "##宾": 6699,
      "##虹": 6700,
      "##碧": 6701,
      "##达": 6702,
      "##郛": 6703,
      "##显": 6704,
      "##宏": 6705,
      "##发": 6706,
      "##继": 6707,
      "##杰": 6708,
      "##侃": 6709,
      "##七": 6710,
      "##工": 6711,
      "##诚": 6712,
      "##坤": 6713,
      "##复": 6714,
      "##鸣": 6715,
      "##龙": 6716,
      "##怒": 6717,
      "##如": 6718,
      "##论": 6719,
      "##圣": 6720,
      "##依": 6721,
      "##贤": 6722,
      "##梁": 6723,
      "##祿": 6724,
      "##獻": 6725,
      "##晶": 6726,
      "##晓": 6727,
      "##性": 6728,
      "##炎": 6729,
      "##培": 6730,
      "##沾": 6731,
      "##港": 6732,
      "##镇": 6733,
      "##秉": 6734,
      "##璇": 6735,
      "##炳": 6736,
      "##耀": 6737,
      "##辉": 6738,
      "##创": 6739,
      "##甘": 6740,
      "##帕": 6741,
      "##薇": 6742,
      "##អ": 6743,
      "##ង": 6744,
      "##ក": 6745,
      "##ន": 6746,
      "##ថ": 6747,
      "##ផ": 6748,
      "##វ": 6749,
      "##鹤": 6750,
      "##声": 6751,
      "##略": 6752,
      "##泉": 6753,
      "##锦": 6754,
      "##绍": 6755,
      "##瀞": 6756,
      "##霜": 6757,
      "##门": 6758,
      "##赞": 6759,
      "##谦": 6760,
      "##齐": 6761,
      "##其": 6762,
      "##濂": 6763,
      "##庆": 6764,
      "##勳": 6765,
      "##荣": 6766,
      "##凡": 6767,
      "##诗": 6768,
      "##厚": 6769,
      "##授": 6770,
      "##思": 6771,
      "##恬": 6772,
      "##廷": 6773,
      "##芳": 6774,
      "##维": 6775,
      "##源": 6776,
      "##闻": 6777,
      "##馨": 6778,
      "##煦": 6779,
      "##涛": 6780,
      "##循": 6781,
      "##财": 6782,
      "##燕": 6783,
      "##亦": 6784,
      "##聪": 6785,
      "##以": 6786,
      "##颐": 6787,
      "##铭": 6788,
      "##易": 6789,
      "##毅": 6790,
      "##瑜": 6791,
      "##欲": 6792,
      "##玉": 6793,
      "##苑": 6794,
      "##祯": 6795,
      "##谭": 6796,
      "##涵": 6797,
      "##延": 6798,
      "##郡": 6799,
      "##繼": 6800,
      "##閣": 6801,
      "##歡": 6802,
      "##罕": 6803,
      "##叔": 6804,
      "##抗": 6805,
      "##奉": 6806,
      "##阮": 6807,
      "##將": 6808,
      "##齊": 6809,
      "##滾": 6810,
      "##煞": 6811,
      "##藥": 6812,
      "##邪": 6813,
      "##蠶": 6814,
      "##畜": 6815,
      "##涅": 6816,
      "##槃": 6817,
      "##超": 6818,
      "##緣": 6819,
      "##份": 6820,
      "##報": 6821,
      "##應": 6822,
      "##汲": 6823,
      "##取": 6824,
      "##允": 6825,
      "##∗": 6826,
      "## ": 6827,
      "##藏": 6828,
      "##区": 6829,
      "##卫": 6830,
      "##委": 6831,
      "##员": 6832,
      "##岸": 6833,
      "##乃": 6834,
      "##嚴": 6835,
      "##殊": 6836,
      "##傳": 6837,
      "##染": 6838,
      "##肺": 6839,
      "##防": 6840,
      "##及": 6841,
      "##紓": 6842,
      "##困": 6843,
      "##振": 6844,
      "##別": 6845,
      "##條": 6846,
      "##例": 6847,
      "##災": 6848,
      "##救": 6849,
      "##預": 6850,
      "##算": 6851,
      "##军": 6852,
      "##ⵓ": 6853,
      "##ⴼ": 6854,
      "##ⴳ": 6855,
      "##ղ": 6856,
      "##խ": 6857,
      "##ܙ": 6858,
      "##ܪ": 6859,
      "##澤": 6860,
      "##ช": 6861,
      "##ษ": 6862,
      "##¢": 6863,
      "##ᅰ": 6864,
      "##փ": 6865,
      "##拾": 6866,
      "##遺": 6867,
      "##語": 6868,
      "##昔": 6869,
      "##鏡": 6870,
      "##談": 6871,
      "##抄": 6872,
      "##説": 6873,
      "##話": 6874,
      "##母": 6875,
      "##曲": 6876,
      "##縣": 6877,
      "##琅": 6878,
      "##育": 6879,
      "##җ": 6880,
      "##藩": 6881,
      "##亂": 6882,
      "##紘": 6883,
      "##鯢": 6884,
      "##鲵": 6885,
      "##洞": 6886,
      "##溪": 6887,
      "##台": 6888,
      "##湾": 6889,
      "##椒": 6890,
      "##瘰": 6891,
      "##螈": 6892,
      "##细": 6893,
      "##痣": 6894,
      "##疣": 6895,
      "##贵": 6896,
      "##汕": 6897,
      "##头": 6898,
      "##蝾": 6899,
      "##琉": 6900,
      "##棘": 6901,
      "##滇": 6902,
      "##紋": 6903,
      "##蛙": 6904,
      "##湍": 6905,
      "##瀑": 6906,
      "##峰": 6907,
      "##斑": 6908,
      "##肛": 6909,
      "##梭": 6910,
      "##胸": 6911,
      "##齿": 6912,
      "##突": 6913,
      "##蟾": 6914,
      "##雾": 6915,
      "##臭": 6916,
      "##腾": 6917,
      "##格": 6918,
      "##鳞": 6919,
      "##皮": 6920,
      "##蹼": 6921,
      "##娃": 6922,
      "##眼": 6923,
      "##卢": 6924,
      "##诸": 6925,
      "##罗": 6926,
      "##橙": 6927,
      "##腹": 6928,
      "##瑶": 6929,
      "##峨": 6930,
      "##眉": 6931,
      "##髭": 6932,
      "##掌": 6933,
      "##凉": 6934,
      "##普": 6935,
      "##顶": 6936,
      "##猫": 6937,
      "##宁": 6938,
      "##陕": 6939,
      "##短": 6940,
      "##腳": 6941,
      "##角": 6942,
      "##型": 6943,
      "##護": 6944,
      "##¯": 6945,
      "##⎖": 6946,
      "##⠨": 6947,
      "##⠂": 6948,
      "##⠲": 6949,
      "##˙": 6950,
      "##億": 6951,
      "##ᡳ": 6952,
      "##ᠰ": 6953,
      "##ᠨ": 6954,
      "##ᡤ": 6955,
      "##ᡠ": 6956,
      "##ᡵ": 6957,
      "##叶": 6958,
      "##恭": 6959,
      "##ү": 6960,
      "##ҙ": 6961,
      "##¨": 6962,
      "##映": 6963,
      "##畫": 6964,
      "##𐤋": 6965,
      "##発": 6966,
      "##半": 6967,
      "##ݣ": 6968,
      "##ٲ": 6969,
      "##獣": 6970,
      "##線": 6971,
      "##⎘": 6972,
      "##⁦": 6973,
      "##𐤁": 6974,
      "##𐤍": 6975,
      "##聯": 6976,
      "##促": 6977,
      "##轉": 6978,
      "##翠": 6979,
      "##ỻ": 6980,
      "##ⵣ": 6981,
      "##ⵇ": 6982,
      "##𐤒": 6983,
      "##𐤅": 6984,
      "##𐤎": 6985,
      "##𒋡": 6986,
      "##𒍑": 6987,
      "##蔡": 6988,
      "##ħ": 6989,
      "##आ": 6990,
      "##ळ": 6991,
      "##凜": 6992,
      "##袋": 6993,
      "##辛": 6994,
      "##奎": 6995,
      "##晩": 6996,
      "##韓": 6997,
      "##ƒ": 6998,
      "##化": 6999,
      "##願": 7000,
      "##査": 7001,
      "##һ": 7002,
      "##會": 7003,
      "##得": 7004,
      "##了": 7005,
      "##個": 7006,
      "##全": 7007,
      "##牌": 7008,
      "##績": 7009,
      "##省": 7010,
      "##總": 7011,
      "##統": 7012,
      "##榘": 7013,
      "##交": 7014,
      "##调": 7015,
      "##查": 7016,
      "##结": 7017,
      "##没": 7018,
      "##证": 7019,
      "##据": 7020,
      "##示": 7021,
      "##股": 7022,
      "##票": 7023,
      "##响": 7024,
      "##飞": 7025,
      "##表": 7026,
      "##现": 7027,
      "##潘": 7028,
      "##琴": 7029,
      "##胜": 7030,
      "##难": 7031,
      "##诉": 7032,
      "##讼": 7033,
      "##案": 7034,
      "##副": 7035,
      "##机": 7036,
      "##师": 7037,
      "##曾": 7038,
      "##试": 7039,
      "##怕": 7040,
      "##降": 7041,
      "##⅛": 7042,
      "##滄": 7043,
      "##悠": 7044,
      "##ᜱ": 7045,
      "##ᜨ": 7046,
      "##ᜢ": 7047,
      "##畅": 7048,
      "##筒": 7049,
      "##団": 7050,
      "##出": 7051,
      "##է": 7052,
      "##զ": 7053,
      "##ձ": 7054,
      "##շ": 7055,
      "##ժ": 7056,
      "##🇸": 7057,
      "##🇦": 7058,
      "##邉": 7059,
      "##衡": 7060,
      "##薛": 7061,
      "##曉": 7062,
      "##嵐": 7063,
      "##锡": 7064,
      "##察": 7065,
      "##运": 7066,
      "##动": 7067,
      "##ⵅ": 7068,
      "##ป": 7069,
      "##舱": 7070,
      "##艙": 7071,
      "##投": 7072,
      "##资": 7073,
      "##限": 7074,
      "##责": 7075,
      "##任": 7076,
      "##⇔": 7077,
      "##↵": 7078,
      "##零": 7079,
      "##楽": 7080,
      "##園": 7081,
      "##ქ": 7082,
      "##თ": 7083,
      "##შ": 7084,
      "##ƿ": 7085,
      "##許": 7086,
      "##₤": 7087,
      "##妻": 7088,
      "##誘": 7089,
      "##惑": 7090,
      "##犬": 7091,
      "##勲": 7092,
      "##¹": 7093,
      "##വ": 7094,
      "##ഴ": 7095,
      "##യ": 7096,
      "##ݐ": 7097,
      "##ڷ": 7098,
      "##ᆽ": 7099,
      "##弟": 7100,
      "##辽": 7101,
      "##灣": 7102,
      "##己": 7103,
      "##翼": 7104,
      "##ђ": 7105,
      "##陣": 7106,
      "##頌": 7107,
      "##黑": 7108,
      "##仔": 7109,
      "##夢": 7110,
      "##萍": 7111,
      "##洪": 7112,
      "##賣": 7113,
      "##盛": 7114,
      "##姑": 7115,
      "##ᇀ": 7116,
      "##⁨": 7117,
      "##¬": 7118,
      "##ㅤ": 7119,
      "##坂": 7120,
      "##ⵖ": 7121,
      "##ⴻ": 7122,
      "##ⵄ": 7123,
      "##ⵝ": 7124,
      "##💜": 7125,
      "##际": 7126,
      "##环": 7127,
      "##ன": 7128,
      "##礎": 7129,
      "##禅": 7130,
      "##戸": 7131,
      "##誕": 7132,
      "##様": 7133,
      "##選": 7134,
      "##頁": 7135,
      "##𒄑": 7136,
      "##𒂞": 7137,
      "##𒌁": 7138,
      "##ኣ": 7139,
      "##ቡ": 7140,
      "##ነ": 7141,
      "##ጦ": 7142,
      "##ዮ": 7143,
      "##ስ": 7144,
      "##ォ": 7145,
      "##版": 7146,
      "##׳": 7147,
      "##众": 7148,
      "##ฑ": 7149,
      "##廃": 7150,
      "##墟": 7151,
      "##ခ": 7152,
      "##န": 7153,
      "##ဆ": 7154,
      "##貝": 7155,
      "##脇": 7156,
      "##前": 7157,
      "##補": 7158,
      "##習": 7159,
      "##教": 7160,
      "##諭": 7161,
      "##県": 7162,
      "##立": 7163,
      "##際": 7164,
      "##解": 7165,
      "##践": 7166,
      "##施": 7167,
      "##設": 7168,
      "##指": 7169,
      "##導": 7170,
      "##録": 7171,
      "##拉": 7172,
      "##乌": 7173,
      "##尔": 7174,
      "##逊": 7175,
      "##တ": 7176,
      "##င": 7177,
      "##稀": 7178,
      "##末": 7179,
      "##柄": 7180,
      "##铁": 7181,
      "##ܓ": 7182,
      "##ܜ": 7183,
      "##消": 7184,
      "##息": 7185,
      "##賀": 7186,
      "##แ": 7187,
      "##บ": 7188,
      "##環": 7189,
      "##ᒪ": 7190,
      "##ᐢ": 7191,
      "##ᑫ": 7192,
      "##ᐠ": 7193,
      "##♯": 7194,
      "##ᇂ": 7195,
      "##錦": 7196,
      "##ԥ": 7197,
      "##‰": 7198,
      "##ໄ": 7199,
      "##ຜ": 7200,
      "##ທ": 7201,
      "##ດ": 7202,
      "##າ": 7203,
      "##ໂ": 7204,
      "##ພ": 7205,
      "##ສ": 7206,
      "##ນ": 7207,
      "##ⅱ": 7208,
      "##帰": 7209,
      "##湘": 7210,
      "##ソ": 7211,
      "##央": 7212,
      "##核": 7213,
      "##业": 7214,
      "##总": 7215,
      "##肃": 7216,
      "##矿": 7217,
      "##卍": 7218,
      "##卐": 7219,
      "##塩": 7220,
      "##装": 7221,
      "##錬": 7222,
      "##嫦": 7223,
      "##娥": 7224,
      "##艳": 7225,
      "##朴": 7226,
      "##இ": 7227,
      "##မ": 7228,
      "##စ": 7229,
      "##管": 7230,
      "##局": 7231,
      "##ꜥ": 7232,
      "##ප": 7233,
      "##ද": 7234,
      "##න": 7235,
      "##ศ": 7236,
      "##ฎ": 7237,
      "##苏": 7238,
      "##བ": 7239,
      "##།": 7240,
      "##․": 7241,
      "##渋": 7242,
      "##裏": 7243,
      "##目": 7244,
      "##我": 7245,
      "##蓼": 7246,
      "##寮": 7247,
      "##模": 7248,
      "##丁": 7249,
      "##番": 7250,
      "##横": 7251,
      "##浜": 7252,
      "##鼓": 7253,
      "##謙": 7254,
      "##સ": 7255,
      "##મ": 7256,
      "##ર": 7257,
      "##ય": 7258,
      "##𐭯": 7259,
      "##𐭠": 7260,
      "##𐭪": 7261,
      "##𐭩": 7262,
      "##籍": 7263,
      "##貫": 7264,
      "##尋": 7265,
      "##ʀ": 7266,
      "##ᚼ": 7267,
      "##ᛅ": 7268,
      "##ᚱ": 7269,
      "##ᛚ": 7270,
      "##ᛏ": 7271,
      "##᛬": 7272,
      "##ᚴ": 7273,
      "##ᚢ": 7274,
      "##ᚾ": 7275,
      "##ᛦ": 7276,
      "##栗": 7277,
      "##崇": 7278,
      "##鳩": 7279,
      "##ʏ": 7280,
      "##禎": 7281,
      "##ҫ": 7282,
      "##℅": 7283,
      "##喵": 7284,
      "##酱": 7285,
      "##醬": 7286,
      "##ө": 7287,
      "##𒊏": 7288,
      "##𒄭": 7289,
      "##𒉡": 7290,
      "##𒆥": 7291,
      "##兄": 7292,
      "##控": 7293,
      "##沪": 7294,
      "##路": 7295,
      "##篠": 7296,
      "##⌀": 7297,
      "##知": 7298,
      "##‒": 7299,
      "##ฮ": 7300,
      "##ฬ": 7301,
      "##ხ": 7302,
      "##უ": 7303,
      "##🌲": 7304,
      "##☀": 7305,
      "##🌊": 7306,
      "##🌬": 7307,
      "##―": 7308,
      "##ஊ": 7309,
      "##ழ": 7310,
      "##ண": 7311,
      "##గ": 7312,
      "##ట": 7313,
      "##ప": 7314,
      "##ణ": 7315,
      "##ల": 7316,
      "##ɽ": 7317,
      "##ფ": 7318,
      "##滝": 7319,
      "##𡇸": 7320,
      "##归": 7321,
      "##布": 7322,
      "##灵": 7323,
      "##峽": 7324,
      "##ए": 7325,
      "##蛇": 7326,
      "##簡": 7327,
      "##兩": 7328,
      "##稅": 7329,
      "##欣": 7330,
      "##ѣ": 7331,
      "##慰": 7332,
      "##妇": 7333,
      "##婦": 7334,
      "##擎": 7335,
      "##技": 7336,
      "##嶋": 7337,
      "##计": 7338,
      "##划": 7339,
      "##展": 7340,
      "##𝑋": 7341,
      "##🦋": 7342,
      "##ㅂ": 7343,
      "##ᡝ": 7344,
      "##ᡩ": 7345,
      "##⨯": 7346,
      "##兴": 7347,
      "##梦": 7348,
      "##🌙": 7349,
      "##刘": 7350,
      "##丞": 7351,
      "##龚": 7352,
      "##柯": 7353,
      "##⚖": 7354,
      "##💼": 7355,
      "##ञ": 7356,
      "##॥": 7357,
      "##精": 7358,
      "##填": 7359,
      "##軒": 7360,
      "##錄": 7361,
      "##拱": 7362,
      "##圍": 7363,
      "##棋": 7364,
      "##緩": 7365,
      "##∇": 7366,
      "##⊥": 7367,
      "##越": 7368,
      "##宣": 7369,
      "##繓": 7370,
      "##雁": 7371,
      "##匈": 7372,
      "##奴": 7373,
      "##劇": 7374,
      "##扈": 7375,
      "##輒": 7376,
      "##肥": 7377,
      "##齮": 7378,
      "##宜": 7379,
      "##翦": 7380,
      "##開": 7381,
      "##趙": 7382,
      "##蔥": 7383,
      "##聚": 7384,
      "##邯": 7385,
      "##鄲": 7386,
      "##℞": 7387,
      "##吐": 7388,
      "##孤": 7389,
      "##筏": 7390,
      "##说": 7391,
      "##选": 7392,
      "##间": 7393,
      "##綱": 7394,
      "##紙": 7395,
      "##農": 7396,
      "##ထ": 7397,
      "##ఉ": 7398,
      "##మ": 7399,
      "##బ": 7400,
      "##ద": 7401,
      "##క": 7402,
      "##ర": 7403,
      "##స": 7404,
      "##న": 7405,
      "##జ": 7406,
      "##డ": 7407,
      "##梓": 7408,
      "##璧": 7409,
      "##寶": 7410,
      "##乍": 7411,
      "##畏": 7412,
      "##街": 7413,
      "##肇": 7414,
      "##ʲ": 7415,
      "##夕": 7416,
      "##足": 7417,
      "##堀": 7418,
      "##渕": 7419,
      "##鴨": 7420,
      "##冬": 7421,
      "##弓": 7422,
      "##许": 7423,
      "##競": 7424,
      "##場": 7425,
      "##♡": 7426,
      "##～": 7427,
      "##栄": 7428,
      "##ܛ": 7429,
      "##ꞵ": 7430,
      "##ʝ": 7431,
      "##ⲁ": 7432,
      "##ϧ": 7433,
      "##ⲱ": 7434,
      "##ⲙ": 7435,
      "##ⲫ": 7436,
      "##ⲧ": 7437,
      "##放": 7438,
      "##战": 7439,
      "##支": 7440,
      "##援": 7441,
      "##队": 7442,
      "##庵": 7443,
      "##ۇ": 7444,
      "##爆": 7445,
      "##傷": 7446,
      "##調": 7447,
      "##員": 7448,
      "##օ": 7449,
      "##ɫ": 7450,
      "##ʟ": 7451,
      "##ɰ": 7452,
      "##ɬ": 7453,
      "##ɮ": 7454,
      "##ˡ": 7455,
      "##ʪ": 7456,
      "##ˤ": 7457,
      "##ʫ": 7458,
      "##ʕ": 7459,
      "##ۥ": 7460,
      "##ۦ": 7461,
      "##儉": 7462,
      "##（": 7463,
      "##蕩": 7464,
      "##宼": 7465,
      "##ɦ": 7466,
      "##ᆮ": 7467,
      "##ᅤ": 7468,
      "##ǃ": 7469,
      "##∬": 7470,
      "##景": 7471,
      "##⊆": 7472,
      "##က": 7473,
      "##ပ": 7474,
      "##ည": 7475,
      "##仰": 7476,
      "##坛": 7477,
      "##秘": 7478,
      "##异": 7479,
      "##端": 7480,
      "##ª": 7481,
      "##΄": 7482,
      "##送": 7483,
      "##ڴ": 7484,
      "##閥": 7485,
      "##尾": 7486,
      "##鲁": 7487,
      "##场": 7488,
      "##魯": 7489,
      "##ҹ": 7490,
      "##ɯ": 7491,
      "##■": 7492,
      "##琢": 7493,
      "##着": 7494,
      "##⤓": 7495,
      "##⇳": 7496,
      "##著": 7497,
      "##餓": 7498,
      "##鬼": 7499,
      "##〉": 7500,
      "##〈": 7501,
      "##★": 7502,
      "##¿": 7503,
      "##პ": 7504,
      "##＆": 7505,
      "##ⵀ": 7506,
      "##𐭥": 7507,
      "##𐭫": 7508,
      "##𐭲": 7509,
      "##汐": 7510,
      "##冀": 7511,
      "##𒌷": 7512,
      "##𒂍": 7513,
      "##𒃲": 7514,
      "##𒈨": 7515,
      "##𒌍": 7516,
      "##妲": 7517,
      "##伐": 7518,
      "##紂": 7519,
      "##炮": 7520,
      "##烙": 7521,
      "##落": 7522,
      "##幾": 7523,
      "##ဇ": 7524,
      "##绪": 7525,
      "##ჩ": 7526,
      "##ც": 7527,
      "##ಠ": 7528,
      "##ಥ": 7529,
      "##ㅅ": 7530,
      "##ヮ": 7531,
      "##勒": 7532,
      "##库": 7533,
      "##善": 7534,
      "##毓": 7535,
      "##芸": 7536,
      "##关": 7537,
      "##ꭱ": 7538,
      "##ꮖ": 7539,
      "##ꮪ": 7540,
      "##ꮷ": 7541,
      "##ꮝ": 7542,
      "##ꮩ": 7543,
      "##ꮣ": 7544,
      "##ꮈ": 7545,
      "##ۋ": 7546,
      "##₠": 7547,
      "##羽": 7548,
      "##崑": 7549,
      "##ច": 7550,
      "##រ": 7551,
      "##យ": 7552,
      "##ჯ": 7553,
      "##ყ": 7554,
      "##兆": 7555,
      "##营": 7556,
      "##ڜ": 7557,
      "##𐭰": 7558,
      "##𐭭": 7559,
      "##秦": 7560,
      "##𒀕": 7561,
      "##ɜ": 7562,
      "##𐎹": 7563,
      "##𐎢": 7564,
      "##𐎴": 7565,
      "##𐎠": 7566,
      "##𐎬": 7567,
      "##𐎼": 7568,
      "##𐎱": 7569,
      "##𐎫": 7570,
      "##𐎷": 7571,
      "##𐎡": 7572,
      "##ኢ": 7573,
      "##ት": 7574,
      "##ጵ": 7575,
      "##𐤐": 7576,
      "##𐤉": 7577,
      "##𐌅": 7578,
      "##𐌝": 7579,
      "##𐌕": 7580,
      "##𐌄": 7581,
      "##𐌋": 7582,
      "##𐌉": 7583,
      "##𐌞": 7584,
      "##𑀪": 7585,
      "##𑀝": 7586,
      "##ߝ": 7587,
      "##ߊ": 7588,
      "##ߛ": 7589,
      "##ߏ": 7590,
      "##𐱅": 7591,
      "##𐰇": 7592,
      "##𐰼": 7593,
      "##𐰜": 7594,
      "##𐰰": 7595,
      "##ǝ": 7596,
      "##𒀸": 7597,
      "##𒋩": 7598,
      "##句": 7599,
      "##ລ": 7600,
      "##ວ": 7601,
      "##𐤈": 7602,
      "##𐎎": 7603,
      "##𐎕": 7604,
      "##𐎗": 7605,
      "##𒊑": 7606,
      "##𒄿": 7607,
      "##ཤ": 7608,
      "##ມ": 7609,
      "##ກ": 7610,
      "##ຕ": 7611,
      "##ອ": 7612,
      "##ຊ": 7613,
      "##ຳ": 7614,
      "##ະ": 7615,
      "##ແ": 7616,
      "##ໃ": 7617,
      "##ຈ": 7618,
      "##ບ": 7619,
      "##ຂ": 7620,
      "##ຫ": 7621,
      "##ຮ": 7622,
      "##ເ": 7623,
      "##ງ": 7624,
      "##త": 7625,
      "##అ": 7626,
      "##వ": 7627,
      "##容": 7628,
      "##孫": 7629,
      "##旂": 7630,
      "##覃": 7631,
      "##暾": 7632,
      "##呼": 7633,
      "##彌": 7634,
      "##襲": 7635,
      "##闡": 7636,
      "##ዞ": 7637,
      "##ባ": 7638,
      "##ዊ": 7639,
      "##ቀ": 7640,
      "##ይ": 7641,
      "##ሕ": 7642,
      "##ሪ": 7643,
      "##𐡔": 7644,
      "##𐡍": 7645,
      "##𐡕": 7646,
      "##𐡐": 7647,
      "##𐡉": 7648,
      "##𐡌": 7649,
      "##𐡋": 7650,
      "##𐡊": 7651,
      "##𐡀": 7652,
      "##څ": 7653,
      "##⅝": 7654,
      "##ɕ": 7655,
      "##ܖ": 7656,
      "##埼": 7657,
      "##₩": 7658,
      "##∀": 7659,
      "##∈": 7660,
      "##ꜜ": 7661,
      "##𐎄": 7662,
      "##𐎌": 7663,
      "##拳": 7664,
      "##伏": 7665,
      "##雙": 7666,
      "##悟": 7667,
      "##瑛": 7668,
      "##濯": 7669,
      "##快": 7670,
      "##幹": 7671,
      "##邦": 7672,
      "##岐": 7673,
      "##ะ": 7674,
      "##ถ": 7675,
      "##冠": 7676,
      "##ᆾ": 7677,
      "##领": 7678,
      "##导": 7679,
      "##ɤ": 7680,
      "## ": 7681,
      "##揚": 7682,
      "##茄": 7683,
      "##営": 7684,
      "##関": 7685,
      "##臨": 7686,
      "##時": 7687,
      "##措": 7688,
      "##置": 7689,
      "##⋅": 7690,
      "##": 7691,
      "##珍": 7692,
      "##ฒ": 7693,
      "##勺": 7694,
      "##銑": 7695,
      "##脹": 7696,
      "##錘": 7697,
      "##匁": 7698,
      "##𠮟": 7699,
      "##塡": 7700,
      "##剝": 7701,
      "##頰": 7702,
      "##叱": 7703,
      "##剥": 7704,
      "##頬": 7705,
      "##𒀯": 7706,
      "##𒀳": 7707,
      "##視": 7708,
      "##⁣": 7709,
      "##岁": 7710,
      "##杭": 7711,
      "##琦": 7712,
      "##耳": 7713,
      "##ゃ": 7714,
      "##𝑥": 7715,
      "##ដ": 7716,
      "##ឋ": 7717,
      "##ម": 7718,
      "##ត": 7719,
      "##ព": 7720,
      "##ជ": 7721,
      "##ណ": 7722,
      "##𒉈": 7723,
      "##𒈩": 7724,
      "##釣": 7725,
      "##ヶ": 7726,
      "##速": 7727,
      "##മ": 7728,
      "##സ": 7729,
      "##ല": 7730,
      "##ർ": 7731,
      "##監": 7732,
      "##ɟ": 7733,
      "##而": 7734,
      "##沼": 7735,
      "##⁡": 7736,
      "##⇒": 7737,
      "##∑": 7738,
      "##⟹": 7739,
      "##妖": 7740,
      "##怪": 7741,
      "##ზ": 7742,
      "##ძ": 7743,
      "##槍": 7744,
      "##ᆻ": 7745,
      "##惡": 7746,
      "##ɶ": 7747,
      "##ˀ": 7748,
      "##忍": 7749,
      "##腰": 7750,
      "##ሔ": 7751,
      "##ራ": 7752,
      "##ሸ": 7753,
      "##ጎ": 7754,
      "##窪": 7755,
      "##凤": 7756,
      "##凰": 7757,
      "##蘋": 7758,
      "##果": 7759,
      "##寝": 7760,
      "##莸": 7761,
      "##属": 7762,
      "##赵": 7763,
      "##坚": 7764,
      "##丘": 7765,
      "##ჭ": 7766,
      "##齋": 7767,
      "##ヌ": 7768,
      "##🔄": 7769,
      "##⬅": 7770,
      "##🚆": 7771,
      "##最": 7772,
      "##強": 7773,
      "##伝": 7774,
      "##浅": 7775,
      "##穴": 7776,
      "##造": 7777,
      "##満": 7778,
      "##姫": 7779,
      "##塘": 7780,
      "##變": 7781,
      "##鳳": 7782,
      "##斉": 7783,
      "##實": 7784,
      "##肉": 7785,
      "##‎": 7786,
      "##屯": 7787,
      "##區": 7788,
      "##ⁿ": 7789,
      "##拓": 7790,
      "##ڈ": 7791,
      "##寧": 7792,
      "##银": 7793,
      "##远": 7794,
      "##🚩": 7795,
      "##現": 7796,
      "##ꮳ": 7797,
      "##ꮃ": 7798,
      "##ꭹ": 7799,
      "##ᏹ": 7800,
      "##ꮥ": 7801,
      "##ꮒ": 7802,
      "##昇": 7803,
      "##爱": 7804,
      "##伪": 7805,
      "## ": 7806,
      "##𐎶": 7807,
      "##𐏁": 7808,
      "##納": 7809,
      "##駒": 7810,
      "##ȝ": 7811,
      "##瑩": 7812,
      "##販": 7813,
      "##売": 7814,
      "##協": 7815,
      "##同": 7816,
      "##組": 7817,
      "##機": 7818,
      "##殉": 7819,
      "##死": 7820,
      "##反": 7821,
      "##ৰ": 7822,
      "##ণ": 7823,
      "##ぬ": 7824,
      "##ฟ": 7825,
      "##ใ": 7826,
      "##顺": 7827,
      "##ᆱ": 7828,
      "##ʋ": 7829,
      "##欧": 7830,
      "##泓": 7831,
      "##奕": 7832,
      "##菓": 7833,
      "##␇": 7834,
      "##⍾": 7835,
      "##乙": 7836,
      "##議": 7837,
      "##ស": 7838,
      "##鍵": 7839,
      "##閉": 7840,
      "##ګ": 7841,
      "##璠": 7842,
      "##ߡ": 7843,
      "##ߎ": 7844,
      "##使": 7845,
      "##⦁": 7846,
      "##诺": 7847,
      "##佩": 7848,
      "##ປ": 7849,
      "##蒲": 7850,
      "##犁": 7851,
      "##ទ": 7852,
      "##ធ": 7853,
      "##維": 7854,
      "##盘": 7855,
      "##鸡": 7856,
      "##，": 7857,
      "##炸": 7858,
      "##面": 7859,
      "##麵": 7860,
      "##杂": 7861,
      "##熏": 7862,
      "##腐": 7863,
      "##毛": 7864,
      "##雞": 7865,
      "##寨": 7866,
      "##弄": 7867,
      "##怀": 7868,
      "##油": 7869,
      "##隘": 7870,
      "##板": 7871,
      "##烂": 7872,
      "##ߞ": 7873,
      "##ߌ": 7874,
      "##ߘ": 7875,
      "##討": 7876,
      "##♞": 7877,
      "##♖": 7878,
      "##ײ": 7879,
      "##ױ": 7880,
      "##װ": 7881,
      "##鞜": 7882,
      "##ڼ": 7883,
      "##ۍ": 7884,
      "##緒": 7885,
      "##種": 7886,
      "##予": 7887,
      "##待": 7888,
      "##溫": 7889,
      "##児": 7890,
      "##⇐": 7891,
      "##△": 7892,
      "##祈": 7893,
      "##資": 7894,
      "##肖": 7895,
      "##泽": 7896,
      "##倭": 7897,
      "##寇": 7898,
      "##ᅫ": 7899,
      "##添": 7900,
      "##係": 7901,
      "##蒙": 7902,
      "##🇹": 7903,
      "##🇳": 7904,
      "##🏊": 7905,
      "##🥇": 7906,
      "##🥈": 7907,
      "##∨": 7908,
      "##ℝ": 7909,
      "##駑": 7910,
      "##ⵟ": 7911,
      "##ⴸ": 7912,
      "##沉": 7913,
      "##范": 7914,
      "##蠡": 7915,
      "##绝": 7916,
      "##苎": 7917,
      "##萝": 7918,
      "##飲": 7919,
      "##睛": 7920,
      "##居": 7921,
      "##ന": 7922,
      "##പ": 7923,
      "##攘": 7924,
      "##𐩦": 7925,
      "##衷": 7926,
      "##බ": 7927,
      "##ග": 7928,
      "##ꜣ": 7929,
      "##無": 7930,
      "##𑀥": 7931,
      "##𑀫": 7932,
      "##𑀮": 7933,
      "##𑀧": 7934,
      "##態": 7935,
      "##遇": 7936,
      "##懋": 7937,
      "##恕": 7938,
      "##愈": 7939,
      "##煥": 7940,
      "##杏": 7941,
      "##澀": 7942,
      "##借": 7943,
      "##枪": 7944,
      "##奇": 7945,
      "##升": 7946,
      "##邊": 7947,
      "##妙": 7948,
      "##嶺": 7949,
      "##晨": 7950,
      "##丽": 7951,
      "##𒈥": 7952,
      "##𒄩": 7953,
      "##𒅆": 7954,
      "##𒆠": 7955,
      "##娘": 7956,
      "##級": 7957,
      "##庚": 7958,
      "##剃": 7959,
      "##俺": 7960,
      "##𐤆": 7961,
      "##沽": 7962,
      "##协": 7963,
      "##隣": 7964,
      "##駄": 7965,
      "##∂": 7966,
      "##宛": 7967,
      "##冒": 7968,
      "##険": 7969,
      "##ӏ": 7970,
      "##亘": 7971,
      "##𝛾": 7972,
      "##𝑛": 7973,
      "##戰": 7974,
      "##役": 7975,
      "##ㄋ": 7976,
      "##髙": 7977,
      "##积": 7978,
      "##丰": 7979,
      "##箱": 7980,
      "##ꙉ": 7981,
      "##乳": 7982,
      "##卵": 7983,
      "##昏": 7984,
      "##傲": 7985,
      "##楞": 7986,
      "##具": 7987,
      "##淑": 7988,
      "##ℂ": 7989,
      "##室": 7990,
      "##犀": 7991,
      "##位": 7992,
      "##᾽": 7993,
      "##叢": 7994,
      "##紫": 7995,
      "##萎": 7996,
      "##銀": 7997,
      "##垢": 7998,
      "##淨": 7999,
      "##陀": 8000,
      "##經": 8001,
      "##禮": 8002,
      "##偽": 8003,
      "##➖": 8004,
      "##۝": 8005,
      "##征": 8006,
      "##朦": 8007,
      "##胧": 8008,
      "##舒": 8009,
      "##ߙ": 8010,
      "##ߋ": 8011,
      "##ߦ": 8012,
      "##𒈚": 8013,
      "##𒁺": 8014,
      "##𒊬": 8015,
      "##𒋞": 8016,
      "##ட": 8017,
      "##அ": 8018,
      "##ற": 8019,
      "##九": 8020,
      "##続": 8021,
      "##殺": 8022,
      "##☉": 8023,
      "##ϕ": 8024,
      "##糸": 8025,
      "##霍": 8026,
      "##留": 8027,
      "##₡": 8028,
      "##ڑ": 8029,
      "##藍": 8030,
      "##网": 8031,
      "##०": 8032,
      "##啟": 8033,
      "##榎": 8034,
      "##ڢ": 8035,
      "##澳": 8036,
      "##程": 8037,
      "##ٷ": 8038,
      "##爷": 8039,
      "##干": 8040,
      "##槵": 8041,
      "##佛": 8042,
      "##說": 8043,
      "##課": 8044,
      "##ʔ": 8045,
      "##˸": 8046,
      "##賴": 8047,
      "##怡": 8048,
      "##伶": 8049,
      "##⠀": 8050,
      "##震": 8051,
      "##椋": 8052,
      "##⁃": 8053,
      "##传": 8054,
      "##媒": 8055,
      "##非": 8056,
      "##洲": 8057,
      "##娜": 8058,
      "##絡": 8059,
      "##繰": 8060,
      "##巧": 8061,
      "##車": 8062,
      "##硫": 8063,
      "##響": 8064,
      "##ਅ": 8065,
      "##ਪ": 8066,
      "##ਰ": 8067,
      "##ਤ": 8068,
      "##ਸ": 8069,
      "##ਘ": 8070,
      "##ਧ": 8071,
      "##ਵ": 8072,
      "##ɸ": 8073,
      "##ʑ": 8074,
      "##葱": 8075,
      "##魂": 8076,
      "##迎": 8077,
      "##幡": 8078,
      "##夜": 8079,
      "##叉": 8080,
      "##列": 8081,
      "##笠": 8082,
      "##寬": 8083,
      "##ⱈ": 8084,
      "##ⱃ": 8085,
      "##禊": 8086,
      "##暮": 8087,
      "##浪": 8088,
      "##ካ": 8089,
      "##ሚ": 8090,
      "##ል": 8091,
      "##？": 8092,
      "##完": 8093,
      "##榊": 8094,
      "##付": 8095,
      "##穆": 8096,
      "##索": 8097,
      "##‟": 8098,
      "##ң": 8099,
      "##亚": 8100,
      "##语": 8101,
      "##鋒": 8102,
      "##ჟ": 8103,
      "##鶏": 8104,
      "##堡": 8105,
      "##塁": 8106,
      "##象": 8107,
      "##坡": 8108,
      "##執": 8109,
      "##址": 8110,
      "##擺": 8111,
      "##某": 8112,
      "##諧": 8113,
      "##寓": 8114,
      "##呪": 8115,
      "##領": 8116,
      "##域": 8117,
      "##𐭡": 8118,
      "##𐭱": 8119,
      "##𐭧": 8120,
      "##𐭅": 8121,
      "##𐭉": 8122,
      "##𐭇": 8123,
      "##𐭔": 8124,
      "##𐭐": 8125,
      "##𐭓": 8126,
      "##ݎ": 8127,
      "##ܗ": 8128,
      "##帥": 8129,
      "##ɢ": 8130,
      "##ᐊ": 8131,
      "##ᕐ": 8132,
      "##ᕕ": 8133,
      "##ᖅ": 8134,
      "##ᓂ": 8135,
      "##ᖁ": 8136,
      "##ᓗ": 8137,
      "##ᖕ": 8138,
      "##ᐸ": 8139,
      "##ᒃ": 8140,
      "##ᐋ": 8141,
      "##ᑑ": 8142,
      "##ᒑ": 8143,
      "##ᕿ": 8144,
      "##ᓚ": 8145,
      "##ᒐ": 8146,
      "##ᑭ": 8147,
      "##ᒍ": 8148,
      "##ᑎ": 8149,
      "##ʎ": 8150,
      "##₪": 8151,
      "##🇮": 8152,
      "##🇶": 8153,
      "##赣": 8154,
      "##贛": 8155,
      "##级": 8156,
      "##浄": 8157,
      "##𝋀": 8158,
      "##𝋁": 8159,
      "##𝋂": 8160,
      "##𝋄": 8161,
      "##𝋒": 8162,
      "##𝋃": 8163,
      "##𝋇": 8164,
      "##𝋉": 8165,
      "##𝋆": 8166,
      "##𝋅": 8167,
      "##₦": 8168,
      "##笘": 8169,
      "##榮": 8170,
      "##ച": 8171,
      "##ϛ": 8172,
      "##˗": 8173,
      "##郷": 8174,
      "##‚": 8175,
      "##味": 8176,
      "##ᔑ": 8177,
      "##ᓈ": 8178,
      "##ᐯ": 8179,
      "##ᒧ": 8180,
      "##ᐎ": 8181,
      "##露": 8182,
      "##伴": 8183,
      "##🇯": 8184,
      "##🇵": 8185,
      "##俄": 8186,
      "##联": 8187,
      "##于": 8188,
      "##界": 8189,
      "##段": 8190,
      "##补": 8191,
      "##充": 8192,
      "##產": 8193,
      "##符": 8194,
      "##碛": 8195,
      "##糖": 8196,
      "##🇪": 8197,
      "##🇬": 8198,
      "##🌍": 8199,
      "##對": 8200,
      "##٭": 8201,
      "##ළ": 8202,
      "##ධ": 8203,
      "##☃": 8204,
      "##蒸": 8205,
      "##期": 8206,
      "##丝": 8207,
      "##猴": 8208,
      "##琪": 8209,
      "##∩": 8210,
      "##ӄ": 8211,
      "##ʂ": 8212,
      "##ɴ": 8213,
      "##𒆷": 8214,
      "##𒅀": 8215,
      "##ٶ": 8216,
      "##ٸ": 8217,
      "##争": 8218,
      "##ਜ": 8219,
      "##ਹ": 8220,
      "##昙": 8221,
      "##桥": 8222,
      "##附": 8223,
      "##闪": 8224,
      "##妓": 8225,
      "##笄": 8226,
      "##引": 8227,
      "##帯": 8228,
      "##篤": 8229,
      "##妌": 8230,
      "##嬕": 8231,
      "##皐": 8232,
      "##薙": 8233,
      "##ရ": 8234,
      "##ꭰ": 8235,
      "##ꭶ": 8236,
      "##ꮿ": 8237,
      "##ꮧ": 8238,
      "##ꭿ": 8239,
      "##勋": 8240,
      "##嫔": 8241,
      "##މ": 8242,
      "##ލ": 8243,
      "##އ": 8244,
      "##ጣ": 8245,
      "##ና": 8246,
      "##ቂ": 8247,
      "##ር": 8248,
      "##ቆ": 8249,
      "##ጪ": 8250,
      "##ˣ": 8251,
      "##进": 8252,
      "##鹏": 8253,
      "##首": 8254,
      "##系": 8255,
      "##ਟ": 8256,
      "##ਕ": 8257,
      "##ਗ": 8258,
      "##ਆ": 8259,
      "##𐩩": 8260,
      "##𐩨": 8261,
      "##𐩲": 8262,
      "##𐩵": 8263,
      "##𐩬": 8264,
      "##𐩢": 8265,
      "##𐩺": 8266,
      "##聂": 8267,
      "##臻": 8268,
      "##ጧ": 8269,
      "##ሽ": 8270,
      "##ዜ": 8271,
      "##婢": 8272,
      "##脂": 8273,
      "##滑": 8274,
      "##砂": 8275,
      "##迷": 8276,
      "##侠": 8277,
      "##≫": 8278,
      "##狗": 8279,
      "##湯": 8280,
      "##萩": 8281,
      "##誰": 8282,
      "##痛": 8283,
      "##電": 8284,
      "##熱": 8285,
      "##像": 8286,
      "##銭": 8287,
      "##漂": 8288,
      "##撰": 8289,
      "##〜": 8290,
      "##俵": 8291,
      "##闇": 8292,
      "##警": 8293,
      "##嫁": 8294,
      "##抜": 8295,
      "##等": 8296,
      "##↤": 8297,
      "##械": 8298,
      "##霧": 8299,
      "##״": 8300,
      "##钟": 8301,
      "##ٽ": 8302,
      "##観": 8303,
      "##衆": 8304,
      "##量": 8305,
      "##≃": 8306,
      "##汽": 8307,
      "##车": 8308,
      "##！": 8309,
      "##₱": 8310,
      "##¶": 8311,
      "##☙": 8312,
      "##乱": 8313,
      "##巣": 8314,
      "##歌": 8315,
      "##吟": 8316,
      "##❤": 8317,
      "##℗": 8318,
      "##盟": 8319,
      "##互": 8320,
      "##幟": 8321,
      "##帜": 8322,
      "##狱": 8323,
      "##獄": 8324,
      "##鳥": 8325,
      "##红": 8326,
      "##透": 8327,
      "##镜": 8328,
      "##葛": 8329,
      "##醫": 8330,
      "##园": 8331,
      "##𒀉": 8332,
      "##𒋭": 8333,
      "##𒃻": 8334,
      "##∪": 8335,
      "##ሌ": 8336,
      "##۞": 8337,
      "##樋": 8338,
      "##ℨ": 8339,
      "##℥": 8340,
      "##饼": 8341,
      "##韮": 8342,
      "##猎": 8343,
      "##狐": 8344,
      "##专": 8345,
      "##项": 8346,
      "##駿": 8347,
      "##⩲": 8348,
      "##⩱": 8349,
      "##∓": 8350,
      "##⌓": 8351,
      "##□": 8352,
      "##⇄": 8353,
      "##↻": 8354,
      "##○": 8355,
      "##班": 8356,
      "##衍": 8357,
      "##垂": 8358,
      "##欽": 8359,
      "##紹": 8360,
      "##顯": 8361,
      "##錫": 8362,
      "##惟": 8363,
      "##與": 8364,
      "##從": 8365,
      "##嗣": 8366,
      "##圓": 8367,
      "##覺": 8368,
      "##釋": 8369,
      "##迦": 8370,
      "##牟": 8371,
      "##敎": 8372,
      "##丹": 8373,
      "##膳": 8374,
      "##余": 8375,
      "##両": 8376,
      "##壺": 8377,
      "##鳴": 8378,
      "##他": 8379,
      "##顔": 8380,
      "##醉": 8381,
      "##鎌": 8382,
      "##ڽ": 8383,
      "##壽": 8384,
      "##稿": 8385,
      "##浓": 8386,
      "##拿": 8387,
      "##记": 8388,
      "##忆": 8389,
      "##时": 8390,
      "##沧": 8391,
      "##応": 8392,
      "##ᓱ": 8393,
      "##ᖽ": 8394,
      "##ᐧ": 8395,
      "##ᖿ": 8396,
      "##₀": 8397,
      "##≪": 8398,
      "##⟪": 8399,
      "##⟫": 8400,
      "##ⓐ": 8401,
      "##漫": 8402,
      "##党": 8403,
      "##📜": 8404,
      "##賊": 8405,
      "##燃": 8406,
      "##点": 8407,
      "##傻": 8408,
      "##瓜": 8409,
      "##戈": 8410,
      "##替": 8411,
      "##顧": 8412,
      "##她": 8413,
      "##旧": 8414,
      "##童": 8415,
      "##话": 8416,
      "##届": 8417,
      "##屆": 8418,
      "##𐍅": 8419,
      "##𐌿": 8420,
      "##𐌻": 8421,
      "##𐍆": 8422,
      "##𐌹": 8423,
      "##𐌰": 8424,
      "##觀": 8425,
      "##贯": 8426,
      "##彻": 8427,
      "##执": 8428,
      "##按": 8429,
      "##劳": 8430,
      "##配": 8431,
      "##义": 8432,
      "##则": 8433,
      "##┐": 8434,
      "##┌": 8435,
      "##挺": 8436,
      "##ತ": 8437,
      "##ನ": 8438,
      "##ಶ": 8439,
      "##ರ": 8440,
      "##桑": 8441,
      "##內": 8442,
      "##⌥": 8443,
      "##革": 8444,
      "##命": 8445,
      "##步": 8446,
      "##黨": 8447,
      "##策": 8448,
      "##电": 8449,
      "##服": 8450,
      "##务": 8451,
      "##宪": 8452,
      "##∼": 8453,
      "##駕": 8454,
      "##駛": 8455,
      "##契": 8456,
      "##貓": 8457,
      "##努": 8458,
      "##灰": 8459,
      "##背": 8460,
      "##架": 8461,
      "##過": 8462,
      "##揭": 8463,
      "##幕": 8464,
      "##隨": 8465,
      "##樣": 8466,
      "##劃": 8467,
      "##炒": 8468,
      "##煮": 8469,
      "##難": 8470,
      "##隠": 8471,
      "##豉": 8472,
      "##𒇽": 8473,
      "##𒄘": 8474,
      "##𒂗": 8475,
      "##𒂷": 8476,
      "##𒁾": 8477,
      "##𒁀": 8478,
      "##𒆤": 8479,
      "##𒀊": 8480,
      "##寳": 8481,
      "##磬": 8482,
      "##４": 8483,
      "##５": 8484,
      "##６": 8485,
      "##錠": 8486,
      "##７": 8487,
      "##珊": 8488,
      "##瑚": 8489,
      "##８": 8490,
      "##መ": 8491,
      "##ቁ": 8492,
      "##ጠ": 8493,
      "##ቍ": 8494,
      "##岬": 8495,
      "##跳": 8496,
      "##个": 8497,
      "##欢": 8498,
      "##你": 8499,
      "##ฏ": 8500,
      "##鵬": 8501,
      "##⇧": 8502,
      "##銈": 8503,
      "##受": 8504,
      "##奖": 8505,
      "##优": 8506,
      "##劲": 8507,
      "##织": 8508,
      "##聲": 8509,
      "##體": 8510,
      "##輿": 8511,
      "##雜": 8512,
      "##候": 8513,
      "##稻": 8514,
      "##坝": 8515,
      "##壩": 8516,
      "##贡": 8517,
      "##噶": 8518,
      "##岭": 8519,
      "##值": 8520,
      "##薄": 8521,
      "##豚": 8522,
      "##糠": 8523,
      "##漬": 8524,
      "##砲": 8525,
      "##当": 8526,
      "##։": 8527,
      "##裴": 8528,
      "##綸": 8529,
      "##爭": 8530,
      "##煤": 8531,
      "##払": 8532,
      "##氐": 8533,
      "##烊": 8534,
      "##玺": 8535,
      "##璽": 8536,
      "##澎": 8537,
      "##ڄ": 8538,
      "##慈": 8539,
      "##悲": 8540,
      "##攝": 8541,
      "##邹": 8542,
      "##屹": 8543,
      "##境": 8544,
      "##危": 8545,
      "##谈": 8546,
      "##ᚠ": 8547,
      "##寅": 8548,
      "##叡": 8549,
      "##邓": 8550,
      "##稼": 8551,
      "##霞": 8552,
      "##严": 8553,
      "##𒀏": 8554,
      "##འ": 8555,
      "##ཛ": 8556,
      "##ʈ": 8557,
      "##是": 8558,
      "##屬": 8559,
      "##护": 8560,
      "##฿": 8561,
      "##急": 8562,
      "##习": 8563,
      "##𐩠": 8564,
      "##𐩥": 8565,
      "##𐩪": 8566,
      "##杻": 8567,
      "##ዕ": 8568,
      "##ድ": 8569,
      "##ቅ": 8570,
      "##ተ": 8571,
      "##ዱ": 8572,
      "##ግ": 8573,
      "##ም": 8574,
      "##ፅ": 8575,
      "##陝": 8576,
      "##枫": 8577,
      "##温": 8578,
      "##撮": 8579,
      "##宙": 8580,
      "##∎": 8581,
      "##无": 8582,
      "##忌": 8583,
      "##倚": 8584,
      "##屠": 8585,
      "##经": 8586,
      "##挪": 8587,
      "##移": 8588,
      "##节": 8589,
      "##珩": 8590,
      "##应": 8591,
      "##蒼": 8592,
      "##ߟ": 8593,
      "##ߓ": 8594,
      "##焔": 8595,
      "##橘": 8596,
      "##璃": 8597,
      "##葵": 8598,
      "##辰": 8599,
      "##洌": 8600,
      "##游": 8601,
      "##備": 8602,
      "##桃": 8603,
      "##潔": 8604,
      "##抓": 8605,
      "##热": 8606,
      "##失": 8607,
      "##昂": 8608,
      "##瑠": 8609,
      "##ߣ": 8610,
      "##ߕ": 8611,
      "##ߍ": 8612,
      "##旷": 8613,
      "##视": 8614,
      "##膽": 8615,
      "##ฉ": 8616,
      "##为": 8617,
      "##წ": 8618,
      "##猛": 8619,
      "##扎": 8620,
      "##笙": 8621,
      "##網": 8622,
      "##谱": 8623,
      "##譜": 8624,
      "##禧": 8625,
      "##သ": 8626,
      "##ဝ": 8627,
      "##済": 8628,
      "##ｊ": 8629,
      "##ａ": 8630,
      "##🗿": 8631,
      "##ꞌ": 8632,
      "##छ": 8633,
      "##ढ": 8634,
      "##榕": 8635,
      "##盖": 8636,
      "##碗": 8637,
      "##အ": 8638,
      "##箭": 8639,
      "##廉": 8640,
      "##颇": 8641,
      "##頗": 8642,
      "##藺": 8643,
      "##蔺": 8644,
      "##洁": 8645,
      "##仪": 8646,
      "##⟶": 8647,
      "##牛": 8648,
      "##ʉ": 8649,
      "##𒌨": 8650,
      "##𒌑": 8651,
      "##𒎏": 8652,
      "##𐩧": 8653,
      "##ન": 8654,
      "##ત": 8655,
      "##ળ": 8656,
      "##વ": 8657,
      "##芭": 8658,
      "##蕉": 8659,
      "##养": 8660,
      "##殖": 8661,
      "##¼": 8662,
      "##🇴": 8663,
      "##崖": 8664,
      "##鮑": 8665,
      "##鲍": 8666,
      "##ඌ": 8667,
      "##හ": 8668,
      "##祇": 8669,
      "##ښ": 8670,
      "##᾿": 8671,
      "##变": 8672,
      "##实": 8673,
      "##验": 8674,
      "##堆": 8675,
      "##尹": 8676,
      "##圳": 8677,
      "##航": 8678,
      "##ሐ": 8679,
      "##ረ": 8680,
      "##ጌ": 8681,
      "##ኡ": 8682,
      "##ሱ": 8683,
      "##仮": 8684,
      "##ठ": 8685,
      "##什": 8686,
      "##坦": 8687,
      "##魏": 8688,
      "##豢": 8689,
      "##提": 8690,
      "##笔": 8691,
      "##忘": 8692,
      "##産": 8693,
      "##用": 8694,
      "##祉": 8695,
      "##職": 8696,
      "##薬": 8697,
      "##־": 8698,
      "##沐": 8699,
      "##曺": 8700,
      "##謡": 8701,
      "##𒄈": 8702,
      "##𒍪": 8703,
      "##‏": 8704,
      "##孚": 8705,
      "##避": 8706,
      "##免": 8707,
      "##幽": 8708,
      "##闭": 8709,
      "##恐": 8710,
      "##惧": 8711,
      "##症": 8712,
      "##类": 8713,
      "##需": 8714,
      "##要": 8715,
      "##｜": 8716,
      "##逝": 8717,
      "##闘": 8718,
      "##櫃": 8719,
      "##": 8720,
      "##𝑁": 8721,
      "##ᆹ": 8722,
      "##樽": 8723,
      "##【": 8724,
      "##葬": 8725,
      "##儀": 8726,
      "##】": 8727,
      "##𐱃": 8728,
      "##𐰢": 8729,
      "##𐰍": 8730,
      "##𐰀": 8731,
      "##ⲥ": 8732,
      "##ⲃ": 8733,
      "##☐": 8734,
      "##☑": 8735,
      "##☒": 8736,
      "##ވ": 8737,
      "##ކ": 8738,
      "##ޕ": 8739,
      "##ޑ": 8740,
      "##ޔ": 8741,
      "##卓": 8742,
      "##播": 8743,
      "##ங": 8744,
      "##咸": 8745,
      "##假": 8746,
      "##甄": 8747,
      "##刊": 8748,
      "##續": 8749,
      "##负": 8750,
      "##肾": 8751,
      "##亏": 8752,
      "##腎": 8753,
      "##虧": 8754,
      "##🅪": 8755,
      "##ⓜ": 8756,
      "##🄮": 8757,
      "##℠": 8758,
      "##懸": 8759,
      "##ƭ": 8760,
      "##鼻": 8761,
      "##嵯": 8762,
      "##碑": 8763,
      "##嚢": 8764,
      "##霊": 8765,
      "##巡": 8766,
      "##杖": 8767,
      "##鎖": 8768,
      "##痴": 8769,
      "##∃": 8770,
      "##ੴ": 8771,
      "##ਓ": 8772,
      "##ॐ": 8773,
      "##ਇ": 8774,
      "##♁": 8775,
      "##楠": 8776,
      "##悪": 8777,
      "##椿": 8778,
      "##气": 8779,
      "##ਭ": 8780,
      "##✅": 8781,
      "##滿": 8782,
      "##戶": 8783,
      "##毕": 8784,
      "##ꀘ": 8785,
      "##ꂾ": 8786,
      "##ⲛ": 8787,
      "##ⲓ": 8788,
      "##ⲣ": 8789,
      "##ⲉ": 8790,
      "##ⲭ": 8791,
      "##ⲏ": 8792,
      "##ⲕ": 8793,
      "##🜨": 8794,
      "##𓇾": 8795,
      "##☷": 8796,
      "##🜃": 8797,
      "##🌎": 8798,
      "##🌏": 8799,
      "##🌐": 8800,
      "##因": 8801,
      "##ⵯ": 8802,
      "##种": 8803,
      "##ዴ": 8804,
      "##ፓ": 8805,
      "##ክ": 8806,
      "##纳": 8807,
      "##˓": 8808,
      "##◦": 8809,
      "##演": 8810,
      "##檀": 8811,
      "##ሊ": 8812,
      "##ኖ": 8813,
      "##从": 8814,
      "##𡨸": 8815,
      "##詞": 8816,
      "##喃": 8817,
      "##ꦮ": 8818,
      "##ꦪ": 8819,
      "##塊": 8820,
      "##ℳ": 8821,
      "##除": 8822,
      "##雀": 8823,
      "##灭": 8824,
      "##ዝ": 8825,
      "##ₐ": 8826,
      "##ʘ": 8827,
      "##ǀ": 8828,
      "##ኞ": 8829,
      "##ኛ": 8830,
      "##ړ": 8831,
      "##仏": 8832,
      "##浴": 8833,
      "##宦": 8834,
      "##倪": 8835,
      "##尕": 8836,
      "##嚕": 8837,
      "##噜": 8838,
      "##捐": 8839,
      "##毒": 8840,
      "##棠": 8841,
      "##斬": 8842,
      "##＝": 8843,
      "##घ": 8844,
      "##彗": 8845,
      "##柊": 8846,
      "##ƞ": 8847,
      "##銅": 8848,
      "##変": 8849,
      "##遊": 8850,
      "##稜": 8851,
      "##託": 8852,
      "##招": 8853,
      "##⁑": 8854,
      "##桶": 8855,
      "##狭": 8856,
      "##累": 8857,
      "##𓍿": 8858,
      "##𓏏": 8859,
      "##𐭑": 8860,
      "##𐭍": 8861,
      "##𐭞": 8862,
      "##𐭝": 8863,
      "##𐭜": 8864,
      "##𐭛": 8865,
      "##玛": 8866,
      "##巖": 8867,
      "##岫": 8868,
      "##逆": 8869,
      "##均": 8870,
      "##决": 8871,
      "##刻": 8872,
      "##右": 8873,
      "##𐎥": 8874,
      "##𐎭": 8875,
      "##ๆ": 8876,
      "##ሃ": 8877,
      "##ፋ": 8878,
      "##專": 8879,
      "##ޅ": 8880,
      "##ސ": 8881,
      "##ދ": 8882,
      "##ނ": 8883,
      "##ބ": 8884,
      "##ރ": 8885,
      "##𐤂": 8886,
      "##營": 8887,
      "##鶴": 8888,
      "##⌘": 8889,
      "##欠": 8890,
      "##債": 8891,
      "##還": 8892,
      "##壱": 8893,
      "##謨": 8894,
      "##ᨅ": 8895,
      "##ᨈ": 8896,
      "##ᨔ": 8897,
      "##ᨒ": 8898,
      "##ᨄ": 8899,
      "##举": 8900,
      "##云": 8901,
      "##𐤇": 8902,
      "##笑": 8903,
      "##દ": 8904,
      "##પ": 8905,
      "##ફ": 8906,
      "##લ": 8907,
      "##શ": 8908,
      "##ક": 8909,
      "##拖": 8910,
      "##麟": 8911,
      "##灿": 8912,
      "##炽": 8913,
      "##‽": 8914,
      "##⸮": 8915,
      "##ཁ": 8916,
      "##袞": 8917,
      "##亭": 8918,
      "##唱": 8919,
      "##酬": 8920,
      "##ڀ": 8921,
      "##酢": 8922,
      "##ހ": 8923,
      "##ތ": 8924,
      "##賈": 8925,
      "##风": 8926,
      "##麼": 8927,
      "##ᠪ": 8928,
      "##ᠣ": 8929,
      "##ᠭ": 8930,
      "##ᠬ": 8931,
      "##媛": 8932,
      "##稚": 8933,
      "##鉉": 8934,
      "##泊": 8935,
      "##禾": 8936,
      "##虫": 8937,
      "##耶": 8938,
      "##弱": 8939,
      "##歳": 8940,
      "##権": 8941,
      "##孙": 8942,
      "##韩": 8943,
      "##庶": 8944,
      "##郢": 8945,
      "##雎": 8946,
      "##齕": 8947,
      "##邮": 8948,
      "##२": 8949,
      "##३": 8950,
      "##ℛ": 8951,
      "##然": 8952,
      "##脱": 8953,
      "##俗": 8954,
      "##寂": 8955,
      "##粋": 8956,
      "##序": 8957,
      "##破": 8958,
      "##焼": 8959,
      "##円": 8960,
      "##ԓ": 8961,
      "##企": 8962,
      "##瀟": 8963,
      "##撈": 8964,
      "##麪": 8965,
      "##餛": 8966,
      "##飩": 8967,
      "##拌": 8968,
      "##峡": 8969,
      "##馆": 8970,
      "##ጉ": 8971,
      "##ዳ": 8972,
      "##ዘ": 8973,
      "##ፍ": 8974,
      "##葎": 8975,
      "##ٴ": 8976,
      "##户": 8977,
      "##厢": 8978,
      "##浏": 8979,
      "##璜": 8980,
      "##泾": 8981,
      "##仓": 8982,
      "##છ": 8983,
      "##單": 8984,
      "##混": 8985,
      "##血": 8986,
      "##厨": 8987,
      "##筑": 8988,
      "##濃": 8989,
      "##ഔ": 8990,
      "##ഗ": 8991,
      "##ൻ": 8992,
      "##ബ": 8993,
      "##ക": 8994,
      "##ത": 8995,
      "##റ": 8996,
      "##ൽ": 8997,
      "##ഭ": 8998,
      "##ട": 8999,
      "##绿": 9000,
      "##注": 9001,
      "##漠": 9002,
      "##泥": 9003,
      "##沟": 9004,
      "##乡": 9005,
      "##莺": 9006,
      "##ۏ": 9007,
      "##ሀ": 9008,
      "##ጫ": 9009,
      "##ሉ": 9010,
      "##ሁ": 9011,
      "##蕃": 9012,
      "##嫊": 9013,
      "##諱": 9014,
      "##虛": 9015,
      "##存": 9016,
      "##炁": 9017,
      "##嵩": 9018,
      "##恆": 9019,
      "##譲": 9020,
      "##葡": 9021,
      "##萄": 9022,
      "##額": 9023,
      "##雍": 9024,
      "##鄒": 9025,
      "##夾": 9026,
      "##榖": 9027,
      "##微": 9028,
      "##": 9029,
      "##坐": 9030,
      "##ɘ": 9031,
      "##𒍝": 9032,
      "##𒀪": 9033,
      "##點": 9034,
      "##狮": 9035,
      "##踩": 9036,
      "##跷": 9037,
      "##猜": 9038,
      "##灯": 9039,
      "##谜": 9040,
      "##耍": 9041,
      "##农": 9042,
      "##滨": 9043,
      "##赫": 9044,
      "##持": 9045,
      "##倍": 9046,
      "##办": 9047,
      "##ጃ": 9048,
      "##ዋ": 9049,
      "##ຣ": 9050,
      "##ຄ": 9051,
      "##逸": 9052,
      "##暎": 9053,
      "##來": 9054,
      "##顕": 9055,
      "##凌": 9056,
      "##薩": 9057,
      "##途": 9058,
      "##匠": 9059,
      "##脩": 9060,
      "##朋": 9061,
      "##芽": 9062,
      "##ঘ": 9063,
      "##ƥ": 9064,
      "##孜": 9065,
      "##楼": 9066,
      "##郑": 9067,
      "##ⲡ": 9068,
      "##ⲟ": 9069,
      "##ⲩ": 9070,
      "##உ": 9071,
      "##∴": 9072,
      "##嬈": 9073,
      "##ʱ": 9074,
      "##ϒ": 9075,
      "##✓": 9076,
      "##🇾": 9077,
      "##測": 9078,
      "##拠": 9079,
      "##ᵑ": 9080,
      "##圀": 9081,
      "##芹": 9082,
      "##各": 9083,
      "##掛": 9084,
      "##挂": 9085,
      "##故": 9086,
      "##雒": 9087,
      "##刚": 9088,
      "##🇩": 9089,
      "##🇿": 9090,
      "##颖": 9091,
      "##身": 9092,
      "##纲": 9093,
      "##疫": 9094,
      "##适": 9095,
      "##卡": 9096,
      "##棉": 9097,
      "##盧": 9098,
      "##💺": 9099,
      "##奏": 9100,
      "##寒": 9101,
      "##漁": 9102,
      "##ɹ": 9103,
      "##拂": 9104,
      "##奔": 9105,
      "##铜": 9106,
      "##两": 9107,
      "##茫": 9108,
      "##樱": 9109,
      "##寻": 9110,
      "##找": 9111,
      "##似": 9112,
      "##宫": 9113,
      "##默": 9114,
      "##趣": 9115,
      "##想": 9116,
      "##只": 9117,
      "##独": 9118,
      "##猪": 9119,
      "##柔": 9120,
      "##√": 9121,
      "##徽": 9122,
      "##寰": 9123,
      "##姊": 9124,
      "##検": 9125,
      "##融": 9126,
      "##威": 9127,
      "##伽": 9128,
      "##鉢": 9129,
      "##宰": 9130,
      "##ᇁ": 9131,
      "##𒋾": 9132,
      "##𒅋": 9133,
      "##𒊨": 9134,
      "##𒌉": 9135,
      "##𒈹": 9136,
      "##𒊕": 9137,
      "##𒄸": 9138,
      "##𐤃": 9139,
      "##惨": 9140,
      "##吞": 9141,
      "##亡": 9142,
      "##勅": 9143,
      "##戆": 9144,
      "##類": 9145,
      "##ɱ": 9146,
      "##⊂": 9147,
      "##": 9148,
      "##判": 9149,
      "##瞳": 9150,
      "##➵": 9151,
      "##过": 9152,
      "##韦": 9153,
      "##𐩫": 9154,
      "##骢": 9155,
      "##ᠮ": 9156,
      "##ᠢ": 9157,
      "##ᠤ": 9158,
      "##ᠡ": 9159,
      "##ᠲ": 9160,
      "##翰": 9161,
      "##構": 9162,
      "##樓": 9163,
      "##奧": 9164,
      "##箕": 9165,
      "##懿": 9166,
      "##赛": 9167,
      "##赡": 9168,
      "##兒": 9169,
      "##别": 9170,
      "##菴": 9171,
      "##‫": 9172,
      "##锅": 9173,
      "##戏": 9174,
      "##剧": 9175,
      "##兽": 9176,
      "##尘": 9177,
      "##曦": 9178,
      "##歷": 9179,
      "##历": 9180,
      "##瓊": 9181,
      "##击": 9182,
      "##败": 9183,
      "##莎": 9184,
      "##乒": 9185,
      "##拟": 9186,
      "##单": 9187,
      "##夺": 9188,
      "##គ": 9189,
      "##ប": 9190,
      "##ខ": 9191,
      "##ហ": 9192,
      "##ⲅ": 9193,
      "##荷": 9194,
      "##ℓ": 9195,
      "##歸": 9196,
      "##岱": 9197,
      "##櫆": 9198,
      "##鼐": 9199,
      "##枚": 9200,
      "##龔": 9201,
      "##潜": 9202,
      "##ฤ": 9203,
      "##苫": 9204,
      "##⨎": 9205,
      "##娱": 9206,
      "##𐌽": 9207,
      "##𐌳": 9208,
      "##𐌷": 9209,
      "##𐍄": 9210,
      "##𐍃": 9211,
      "##须": 9212,
      "##产": 9213,
      "##推": 9214,
      "##谐": 9215,
      "##莫": 9216,
      "##吕": 9217,
      "##慘": 9218,
      "##席": 9219,
      "##埃": 9220,
      "##亞": 9221,
      "##項": 9222,
      "##ɚ": 9223,
      "##窿": 9224,
      "##貌": 9225,
      "##❪": 9226,
      "##❫": 9227,
      "##勾": 9228,
      "##剑": 9229,
      "##磊": 9230,
      "##给": 9231,
      "##对": 9232,
      "##瓴": 9233,
      "##始": 9234,
      "##观": 9235,
      "##蒂": 9236,
      "##芬": 9237,
      "##转": 9238,
      "##折": 9239,
      "##∠": 9240,
      "##ገ": 9241,
      "##ฝ": 9242,
      "##戴": 9243,
      "##結": 9244,
      "##率": 9245,
      "##辟": 9246,
      "##统": 9247,
      "##鏞": 9248,
      "##ᮊ": 9249,
      "##ᮘ": 9250,
      "##ᮕ": 9251,
      "##ᮒ": 9252,
      "##ᮔ": 9253,
      "##ᮞ": 9254,
      "##ᮙ": 9255,
      "##匂": 9256,
      "##錵": 9257,
      "##慕": 9258,
      "##谋": 9259,
      "##做": 9260,
      "##权": 9261,
      "##律": 9262,
      "##幗": 9263,
      "##歓": 9264,
      "##套": 9265,
      "##淖": 9266,
      "##ལ": 9267,
      "##ᒡ": 9268,
      "##ᔪ": 9269,
      "##磯": 9270,
      "##陛": 9271,
      "##却": 9272,
      "##摸": 9273,
      "##∕": 9274,
      "##糯": 9275,
      "##籬": 9276,
      "##辞": 9277,
      "##♀": 9278,
      "##ⁱ": 9279,
      "##ᵏ": 9280,
      "##佬": 9281,
      "##怖": 9282,
      "##喩": 9283,
      "##築": 9284,
      "##遡": 9285,
      "##批": 9286,
      "##評": 9287,
      "##焉": 9288,
      "##漱": 9289,
      "##論": 9290,
      "##唯": 9291,
      "##析": 9292,
      "##読": 9293,
      "##။": 9294,
      "##ဂ": 9295,
      "##ယ": 9296,
      "##လ": 9297,
      "##❖": 9298,
      "##𪧚": 9299,
      "##茡": 9300,
      "##芓": 9301,
      "##𡦂": 9302,
      "##佇": 9303,
      "##諵": 9304,
      "##兀": 9305,
      "##滕": 9306,
      "##₺": 9307,
      "##甸": 9308,
      "##梶": 9309,
      "##ɗ": 9310,
      "##炊": 9311,
      "##ཚ": 9312,
      "##坎": 9313,
      "##碣": 9314,
      "##驗": 9315,
      "##ഇ": 9316,
      "##ഫ": 9317,
      "##ഹ": 9318,
      "##എ": 9319,
      "##ജ": 9320,
      "##ഷ": 9321,
      "##崙": 9322,
      "##¦": 9323,
      "##˧": 9324,
      "##˥": 9325,
      "##旦": 9326,
      "##ሆ": 9327,
      "##ሩ": 9328,
      "##滘": 9329,
      "##扶": 9330,
      "##乩": 9331,
      "##盤": 9332,
      "##⋆": 9333,
      "##塾": 9334,
      "##盎": 9335,
      "##覽": 9336,
      "##凱": 9337,
      "##被": 9338,
      "##娩": 9339,
      "##𐭬": 9340,
      "##𐭣": 9341,
      "##预": 9342,
      "##捷": 9343,
      "##✾": 9344,
      "##騎": 9345,
      "##菌": 9346,
      "##谊": 9347,
      "##墀": 9348,
      "##姉": 9349,
      "##ˠ": 9350,
      "##釜": 9351,
      "##璘": 9352,
      "##樞": 9353,
      "##薊": 9354,
      "##處": 9355,
      "##署": 9356,
      "##督": 9357,
      "##僉": 9358,
      "##𒀴": 9359,
      "##𒊩": 9360,
      "##𒌆": 9361,
      "##疊": 9362,
      "##刺": 9363,
      "##ڻ": 9364,
      "##惣": 9365,
      "##揆": 9366,
      "##ʽ": 9367,
      "##♈": 9368,
      "##♋": 9369,
      "##♎": 9370,
      "##♑": 9371,
      "##☊": 9372,
      "##☋": 9373,
      "##☄": 9374,
      "##ㅇ": 9375,
      "##ㄷ": 9376,
      "##ㄴ": 9377,
      "##॰": 9378,
      "##હ": 9379,
      "##ડ": 9380,
      "##瀾": 9381,
      "##坊": 9382,
      "##ᕙ": 9383,
      "##ᓪ": 9384,
      "##冷": 9385,
      "##娼": 9386,
      "##去": 9387,
      "##ऊ": 9388,
      "##袖": 9389,
      "##帅": 9390,
      "##舵": 9391,
      "##ဒ": 9392,
      "##稳": 9393,
      "##疗": 9394,
      "##穩": 9395,
      "##療": 9396,
      "##🇭": 9397,
      "##ˑ": 9398,
      "##⎉": 9399,
      "##射": 9400,
      "##収": 9401,
      "##➞": 9402,
      "##禁": 9403,
      "##弐": 9404,
      "##咫": 9405,
      "##＠": 9406,
      "##⬆": 9407,
      "##彙": 9408,
      "##跋": 9409,
      "##ភ": 9410,
      "##ᮝ": 9411,
      "##绸": 9412,
      "##蹴": 9413,
      "##鞠": 9414,
      "##溸": 9415,
      "##孽": 9416,
      "##驥": 9417,
      "##ఏ": 9418,
      "##ఱ": 9419,
      "##య": 9420,
      "##∙": 9421,
      "##ᆲ": 9422,
      "##ဗ": 9423,
      "##活": 9424,
      "##恥": 9425,
      "##问": 9426,
      "##题": 9427,
      "##贷": 9428,
      "##综": 9429,
      "##货": 9430,
      "##币": 9431,
      "##‥": 9432,
      "##發": 9433,
      "##ڱ": 9434,
      "##胶": 9435,
      "##驴": 9436,
      "##ѕ": 9437,
      "##俱": 9438,
      "##🎼": 9439,
      "##纪": 9440,
      "##侨": 9441,
      "##僑": 9442,
      "##裔": 9443,
      "##ဍ": 9444,
      "##ၚ": 9445,
      "##ဟ": 9446,
      "##׃": 9447,
      "##矩": 9448,
      "##𒈗": 9449,
      "##桌": 9450,
      "##悔": 9451,
      "##写": 9452,
      "##墙": 9453,
      "##脸": 9454,
      "##飘": 9455,
      "##睡": 9456,
      "##铺": 9457,
      "##ℤ": 9458,
      "##吏": 9459,
      "##ڙ": 9460,
      "##筆": 9461,
      "##墨": 9462,
      "##寫": 9463,
      "##筱": 9464,
      "##ѧ": 9465,
      "##芋": 9466,
      "##凯": 9467,
      "##𐭌": 9468,
      "##𐎧": 9469,
      "##𐏂": 9470,
      "##𐎲": 9471,
      "##𐎦": 9472,
      "##组": 9473,
      "##审": 9474,
      "##暴": 9475,
      "##🇧": 9476,
      "##🇫": 9477,
      "##🇨": 9478,
      "##🇲": 9479,
      "##🇻": 9480,
      "##🇼": 9481,
      "##ಳ": 9482,
      "##ವ": 9483,
      "##ಕ": 9484,
      "##ಪ": 9485,
      "##ಡ": 9486,
      "##ಯ": 9487,
      "##嵆": 9488,
      "##賦": 9489,
      "##ህ": 9490,
      "##ወ": 9491,
      "##ሓ": 9492,
      "##ኔ": 9493,
      "##ƣ": 9494,
      "##ᶇ": 9495,
      "##ɵ": 9496,
      "##ƶ": 9497,
      "##﹡": 9498,
      "##线": 9499,
      "##餐": 9500,
      "##𐰺": 9501,
      "##𐰴": 9502,
      "##衢": 9503,
      "##樟": 9504,
      "##𝞴": 9505,
      "##薔": 9506,
      "##帛": 9507,
      "##厄": 9508,
      "##遷": 9509,
      "##篇": 9510,
      "##獨": 9511,
      "##岿": 9512,
      "##祕": 9513,
      "##识": 9514,
      "##齡": 9515,
      "##鮪": 9516,
      "##占": 9517,
      "##継": 9518,
      "##帆": 9519,
      "##势": 9520,
      "##峻": 9521,
      "##患": 9522,
      "##收": 9523,
      "##戒": 9524,
      "##设": 9525,
      "##阶": 9526,
      "##颁": 9527,
      "##◥": 9528,
      "##◤": 9529,
      "##彡": 9530,
      "##〆": 9531,
      "##『": 9532,
      "##』": 9533,
      "##♛": 9534,
      "##꧁": 9535,
      "##꧂": 9536,
      "##吹": 9537,
      "##謄": 9538,
      "##釘": 9539,
      "##儺": 9540,
      "##狂": 9541,
      "##貿": 9542,
      "##燈": 9543,
      "##冥": 9544,
      "##籠": 9545,
      "##⁰": 9546,
      "## ": 9547,
      "##傑": 9548,
      "##ભ": 9549,
      "##抹": 9550,
      "##品": 9551,
      "##鹿": 9552,
      "##盆": 9553,
      "##苖": 9554,
      "##𒅎": 9555,
      "##𒌓": 9556,
      "##ସ": 9557,
      "##ହ": 9558,
      "##ಸ": 9559,
      "##ಹ": 9560,
      "##嘴": 9561,
      "##冴": 9562,
      "##階": 9563,
      "##濤": 9564,
      "##淸": 9565,
      "##姿": 9566,
      "##堤": 9567,
      "##巻": 9568,
      "##刷": 9569,
      "##ଚ": 9570,
      "##ଉ": 9571,
      "##ଳ": 9572,
      "##ଶ": 9573,
      "##ଖ": 9574,
      "##ଆ": 9575,
      "##ଙ": 9576,
      "##ଗ": 9577,
      "##ଡ": 9578,
      "##ତ": 9579,
      "##ପ": 9580,
      "##ଣ": 9581,
      "##稽": 9582,
      "##樵": 9583,
      "##𝐽": 9584,
      "##𝑘": 9585,
      "##∫": 9586,
      "##𝑃": 9587,
      "##𝑗": 9588,
      "##𝑑": 9589,
      "##𝑆": 9590,
      "##𝑊": 9591,
      "##𝑠": 9592,
      "##𝑇": 9593,
      "##𝑖": 9594,
      "##𝑢": 9595,
      "##𝑅": 9596,
      "##𝜎": 9597,
      "##𝄆": 9598,
      "##𝄇": 9599,
      "##崔": 9600,
      "##ល": 9601,
      "##ߜ": 9602,
      "##ߥ": 9603,
      "##ҷ": 9604,
      "##羌": 9605,
      "##ಗ": 9606,
      "##ந": 9607,
      "##兌": 9608,
      "##ฐ": 9609,
      "##ﹳ": 9610,
      "##瓣": 9611,
      "##辣": 9612,
      "##孩": 9613,
      "##档": 9614,
      "##跑": 9615,
      "##疑": 9616,
      "##或": 9617,
      "##接": 9618,
      "##呀": 9619,
      "##＜": 9620,
      "##＞": 9621,
      "##暗": 9622,
      "##鎧": 9623,
      "##润": 9624,
      "##述": 9625,
      "##𐭊": 9626,
      "##拨": 9627,
      "##撥": 9628,
      "##致": 9629,
      "##看": 9630,
      "##冤": 9631,
      "##错": 9632,
      "##踊": 9633,
      "##鋭": 9634,
      "##眠": 9635,
      "##ᴇ": 9636,
      "##ᴠ": 9637,
      "##𝓗": 9638,
      "##𝓐": 9639,
      "##𝓢": 9640,
      "##𝓝": 9641,
      "##ڬ": 9642,
      "##绣": 9643,
      "##狻": 9644,
      "##猊": 9645,
      "##即": 9646,
      "##؋": 9647,
      "##蓬": 9648,
      "##蛍": 9649,
      "##渓": 9650,
      "##彊": 9651,
      "##頼": 9652,
      "##伙": 9653,
      "##✪": 9654,
      "##⁇": 9655,
      "##拆": 9656,
      "##迫": 9657,
      "##扇": 9658,
      "##勉": 9659,
      "##议": 9660,
      "##ཞ": 9661,
      "##ཅ": 9662,
      "##ཐ": 9663,
      "##蔭": 9664,
      "##紐": 9665,
      "##試": 9666,
      "##鸢": 9667,
      "##穐": 9668,
      "##餅": 9669,
      "##∅": 9670,
      "##ऽ": 9671,
      "##𒄞": 9672,
      "##𒋰": 9673,
      "##𒋦": 9674,
      "##𒈧": 9675,
      "##𒈦": 9676,
      "##𒀠": 9677,
      "##𒇻": 9678,
      "##亀": 9679,
      "##☰": 9680,
      "##℈": 9681,
      "##嘆": 9682,
      "##狼": 9683,
      "##触": 9684,
      "##漆": 9685,
      "##⇲": 9686,
      "##丑": 9687,
      "##亥": 9688,
      "##匡": 9689,
      "##卯": 9690,
      "##悌": 9691,
      "##晋": 9692,
      "##禄": 9693,
      "##穣": 9694,
      "##胤": 9695,
      "##艶": 9696,
      "##蔦": 9697,
      "##蝶": 9698,
      "##酉": 9699,
      "##鯉": 9700,
      "##鯛": 9701,
      "##麿": 9702,
      "##ϩ": 9703,
      "##ⲇ": 9704,
      "##舩": 9705,
      "##包": 9706,
      "##僕": 9707,
      "##刮": 9708,
      "##痧": 9709,
      "##₽": 9710,
      "##ჰ": 9711,
      "##羈": 9712,
      "##縻": 9713,
      "##冊": 9714,
      "##封": 9715,
      "##貢": 9716,
      "##昼": 9717,
      "##饺": 9718,
      "##贴": 9719,
      "##側": 9720,
      "##告": 9721,
      "##犹": 9722,
      "##ℕ": 9723,
      "##𝒫": 9724,
      "##∘": 9725,
      "##霖": 9726,
      "##雑": 9727,
      "##裾": 9728,
      "##雛": 9729,
      "## ا": 9730,
      "## ال": 9731,
      "##ة ": 9732,
      "## م": 9733,
      "##في": 9734,
      "##ال": 9735,
      "## و": 9736,
      "##ن ": 9737,
      "##ات": 9738,
      "##ري": 9739,
      "##ان": 9740,
      "##ة ال": 9741,
      "## في": 9742,
      "## ب": 9743,
      "##ام": 9744,
      "## الم": 9745,
      "## ع": 9746,
      "##اي": 9747,
      "##ار": 9748,
      "##\n\n": 9749,
      "## ل": 9750,
      "## ت": 9751,
      "##ية ": 9752,
      "##ول": 9753,
      "##را": 9754,
      "##دي": 9755,
      "## ك": 9756,
      "##ون": 9757,
      "##ين": 9758,
      "## الا": 9759,
      "##لا": 9760,
      "## من": 9761,
      "## 1": 9762,
      "##سي": 9763,
      "##، و": 9764,
      "## ي": 9765,
      "##ها": 9766,
      "##ست": 9767,
      "##.\n\n": 9768,
      "##ور": 9769,
      "##لي": 9770,
      "##اب": 9771,
      "##ير": 9772,
      "##ما": 9773,
      "## ه": 9774,
      "##لى": 9775,
      "##قد": 9776,
      "##20": 9777,
      "## ن": 9778,
      "##ية": 9779,
      "## الت": 9780,
      "## الع": 9781,
      "##وا": 9782,
      "##يا": 9783,
      "## ح": 9784,
      "##رو": 9785,
      "## س": 9786,
      "## من ": 9787,
      "## ان": 9788,
      "## 19": 9789,
      "## ج": 9790,
      "##وي": 9791,
      "##بي": 9792,
      "## ف": 9793,
      "##عب": 9794,
      "##لك": 9795,
      "##اد": 9796,
      "##ون ": 9797,
      "##بر": 9798,
      "## على": 9799,
      "## (": 9800,
      "##مي": 9801,
      "##حد": 9802,
      "##نا": 9803,
      "## الق": 9804,
      "## وال": 9805,
      "##كي": 9806,
      "##ة م": 9807,
      "## 20": 9808,
      "## ق": 9809,
      "## الح": 9810,
      "##عد": 9811,
      "##وال": 9812,
      "## د": 9813,
      "##سب": 9814,
      "##وم": 9815,
      "##رب": 9816,
      "##رة ": 9817,
      "##اف": 9818,
      "##كت": 9819,
      "## الى": 9820,
      "## الج": 9821,
      "##لم": 9822,
      "##\nم": 9823,
      "## عام": 9824,
      "## ش": 9825,
      "##بل": 9826,
      "## اي": 9827,
      "##اء": 9828,
      "##وس": 9829,
      "##اس": 9830,
      "##يد": 9831,
      "## خ": 9832,
      "##لاعب": 9833,
      "##قدم": 9834,
      "##ة الم": 9835,
      "##ان ": 9836,
      "## مع": 9837,
      "##ني": 9838,
      "## الس": 9839,
      "## الن": 9840,
      "##تي": 9841,
      "##الم": 9842,
      "##لاعبو": 9843,
      "## ام": 9844,
      "##انت": 9845,
      "##رك": 9846,
      "##ة في": 9847,
      "##وري": 9848,
      "## \n\n": 9849,
      "##اني": 9850,
      "## الد": 9851,
      "## او": 9852,
      "##\nلاعبو": 9853,
      "## الب": 9854,
      "##ود": 9855,
      "##ة ب": 9856,
      "##تم": 9857,
      "##رج": 9858,
      "##راج": 9859,
      "##اع": 9860,
      "## الف": 9861,
      "## لل": 9862,
      "##اري": 9863,
      "##هم": 9864,
      "## الك": 9865,
      "##ند": 9866,
      "## الش": 9867,
      "##صل": 9868,
      "##يل": 9869,
      "##. و": 9870,
      "##راجع": 9871,
      "##ين ": 9872,
      "## \n": 9873,
      "##اص": 9874,
      "##قا": 9875,
      "##ة ل": 9876,
      "##قي": 9877,
      "##حت": 9878,
      "##الي": 9879,
      "## في ": 9880,
      "##وب": 9881,
      "## المت": 9882,
      "##مل": 9883,
      "##زي": 9884,
      "##ة ا": 9885,
      "##ريكي": 9886,
      "##سل": 9887,
      "##كب": 9888,
      "##وق": 9889,
      "##غير": 9890,
      "## بال": 9891,
      "## الص": 9892,
      "##شر": 9893,
      "##وج": 9894,
      "## كرة ": 9895,
      "## هو": 9896,
      "##عة ": 9897,
      "##سم": 9898,
      "##جم": 9899,
      "##ذا": 9900,
      "## الخ": 9901,
      "##كل": 9902,
      "##ية في": 9903,
      "##يو": 9904,
      "## لا": 9905,
      "## 201": 9906,
      "##كر": 9907,
      "## كرة قدم": 9908,
      "##عي": 9909,
      "##جل": 9910,
      "## في م": 9911,
      "##تر": 9912,
      "##على": 9913,
      "##اض": 9914,
      "##كن": 9915,
      "##ة،": 9916,
      "##ة.": 9917,
      "##ون في": 9918,
      "## الام": 9919,
      "## الذ": 9920,
      "## ص": 9921,
      "## ان ": 9922,
      "## است": 9923,
      "##سا": 9924,
      "## القر": 9925,
      "##اش": 9926,
      "##ذلك": 9927,
      "##خل": 9928,
      "##ديد": 9929,
      "##من": 9930,
      "##وفي": 9931,
      "##00": 9932,
      "##ضا": 9933,
      "##ثل": 9934,
      "##عل": 9935,
      "##حي": 9936,
      "##وف": 9937,
      "##اج": 9938,
      "##مراجع": 9939,
      "##.\n": 9940,
      "##وت": 9941,
      "##اق": 9942,
      "##ارج": 9943,
      "##عم": 9944,
      "##وع": 9945,
      "##رق": 9946,
      "##سط": 9947,
      "##19": 9948,
      "##ريي": 9949,
      "## في ال": 9950,
      "##ذه": 9951,
      "##اث": 9952,
      "##سر": 9953,
      "## امريكي": 9954,
      "##ولاي": 9955,
      "##رس": 9956,
      "##ادي": 9957,
      "##اير": 9958,
      "## «": 9959,
      "## تم": 9960,
      "##رت": 9961,
      "##هي": 9962,
      "##ات ال": 9963,
      "##نة ": 9964,
      "##اك": 9965,
      "##ة من": 9966,
      "## 2": 9967,
      "## المتحد": 9968,
      "##عام": 9969,
      "##سك": 9970,
      "## غ": 9971,
      "##تل": 9972,
      "##.\n\nال": 9973,
      "##دم": 9974,
      "##لام": 9975,
      "## ايضا": 9976,
      "## سي": 9977,
      "##لد": 9978,
      "##اه": 9979,
      "##خر": 9980,
      "##نت": 9981,
      "##طق": 9982,
      "##رف": 9983,
      "##ريك": 9984,
      "## ط": 9985,
      "##وك": 9986,
      "##خص": 9987,
      "## الث": 9988,
      "##تح": 9989,
      "##واليد": 9990,
      "##از": 9991,
      "##عت": 9992,
      "## 199": 9993,
      "## التي": 9994,
      "##ية ل": 9995,
      "##سبة ": 9996,
      "##قل": 9997,
      "## اك": 9998,
      "##ايي": 9999,
      "## الط": 10000,
      "##ويكب": 10001,
      "## 200": 10002,
      "## مح": 10003,
      "##دا": 10004,
      "##تش": 10005,
      "##ولايات": 10006,
      "##ايل": 10007,
      "##رض": 10008,
      "##راء": 10009,
      "## خارج": 10010,
      "## اب": 10011,
      "##بلغ": 10012,
      "##ية \n": 10013,
      "##هو": 10014,
      "##خاص": 10015,
      "##ة، و": 10016,
      "## 18": 10017,
      "## هي": 10018,
      "##ولايات المتحد": 10019,
      "##با": 10020,
      "## ما": 10021,
      "##يم": 10022,
      "##ته": 10023,
      "##.\n\nمراجع": 10024,
      "## مت": 10025,
      "##ة الا": 10026,
      "##ية م": 10027,
      "##عض": 10028,
      "##يني": 10029,
      "##ة\n": 10030,
      "##صف": 10031,
      "## كانت": 10032,
      "## القرن ": 10033,
      "##ة وال": 10034,
      "## من ا": 10035,
      "##، ا": 10036,
      "##ثر": 10037,
      "## بعد": 10038,
      "##\nمواليد": 10039,
      "## لم": 10040,
      "##فر": 10041,
      "##ريق": 10042,
      "## هذا": 10043,
      "## الان": 10044,
      "##وز": 10045,
      "## دي": 10046,
      "##وط": 10047,
      "## في عام": 10048,
      "## اس": 10049,
      "##. ": 10050,
      "##سيا": 10051,
      "## الذي": 10052,
      "##كتش": 10053,
      "##. ت": 10054,
      "##تص": 10055,
      "##حل": 10056,
      "##، ": 10057,
      "##دد": 10058,
      "## الل": 10059,
      "##ات الم": 10060,
      "## عن": 10061,
      "## اف": 10062,
      "##ظم": 10063,
      "##دار": 10064,
      "##هر": 10065,
      "##\nلاعبو كرة قدم": 10066,
      "## هذه": 10067,
      "##جي": 10068,
      "##جر": 10069,
      "##طل": 10070,
      "##تع": 10071,
      "## بين": 10072,
      "## ر": 10073,
      "##ية\n": 10074,
      "## في الم": 10075,
      "##21": 10076,
      "##ايم": 10077,
      "##كان": 10078,
      "##بار": 10079,
      "##فس": 10080,
      "##ولي": 10081,
      "##شي": 10082,
      "##ة الى": 10083,
      "##رياض": 10084,
      "## ض": 10085,
      "##مر": 10086,
      "##)\n": 10087,
      "##طي": 10088,
      "##بال": 10089,
      "##. ي": 10090,
      "##قع": 10091,
      "##ة الع": 10092,
      "## وم": 10093,
      "##، وال": 10094,
      "## بي": 10095,
      "##ات م": 10096,
      "##انيا": 10097,
      "##ية وال": 10098,
      "##هد": 10099,
      "##شكل": 10100,
      "## كان ": 10101,
      "##غت": 10102,
      "##ة ف": 10103,
      "##ن في": 10104,
      "## -": 10105,
      "##جن": 10106,
      "##اشخاص": 10107,
      "## رو": 10108,
      "##كو": 10109,
      "##صب": 10110,
      "## الي": 10111,
      "##وصل": 10112,
      "##ندي": 10113,
      "##مال": 10114,
      "##er": 10115,
      "##دين": 10116,
      "##اح": 10117,
      "##رجال": 10118,
      "##بع": 10119,
      "## عن ": 10120,
      "##ة ت": 10121,
      "## انت": 10122,
      "## خارجية \n": 10123,
      "##قبل": 10124,
      "##اريخ": 10125,
      "##وني": 10126,
      "## الر": 10127,
      "##ية،": 10128,
      "## الاول": 10129,
      "##ستخ": 10130,
      "##قاط": 10131,
      "##كم": 10132,
      "## 3": 10133,
      "##ارك": 10134,
      "##صد": 10135,
      "##فت": 10136,
      "##رن": 10137,
      "## ،": 10138,
      "##وسط": 10139,
      "##قدر": 10140,
      "##% من": 10141,
      "##ارس": 10142,
      "##سبب": 10143,
      "## حي": 10144,
      "## ث": 10145,
      "##خرى": 10146,
      "## ذلك": 10147,
      "##رين": 10148,
      "##ات في": 10149,
      "##المراجع": 10150,
      "## المن": 10151,
      "## الار": 10152,
      "##ة لل": 10153,
      "##ظر": 10154,
      "##ايز": 10155,
      "##ناء": 10156,
      "## اله": 10157,
      "##راس": 10158,
      "##وصلات": 10159,
      "##وات": 10160,
      "##ة القدم": 10161,
      "##ية، و": 10162,
      "##وح": 10163,
      "##غترب": 10164,
      "## 198": 10165,
      "##بد": 10166,
      "##كتاب": 10167,
      "##ة.\n\n": 10168,
      "##صر": 10169,
      "##ة ع": 10170,
      "##كون": 10171,
      "##لال": 10172,
      "##ركز": 10173,
      "##\n\nوصلات": 10174,
      "##. ا": 10175,
      "##قط": 10176,
      "##رييس": 10177,
      "##رييسي": 10178,
      "## وا": 10179,
      "## الغ": 10180,
      "##مد": 10181,
      "##نسبة ": 10182,
      "##قر": 10183,
      "##فا": 10184,
      "##خت": 10185,
      "##يت": 10186,
      "##دام": 10187,
      "##جو": 10188,
      "##an": 10189,
      "##جلس": 10190,
      "##بات": 10191,
      "## من م": 10192,
      "##وض": 10193,
      "##دة ": 10194,
      "##ة الت": 10195,
      "##قت": 10196,
      "##e ": 10197,
      "## كان": 10198,
      "##، م": 10199,
      "## المح": 10200,
      "## ز": 10201,
      "## عدد": 10202,
      "## في ا": 10203,
      "##ديم": 10204,
      "## كل": 10205,
      "##ة التي": 10206,
      "##\n\nوصلات خارجية \n": 10207,
      "##رم": 10208,
      "##in": 10209,
      "## تع": 10210,
      "##اط": 10211,
      "##ة من ": 10212,
      "##ليم": 10213,
      "##ية ب": 10214,
      "## وحد": 10215,
      "##مثل": 10216,
      "##ما ي": 10217,
      "##ريط": 10218,
      "##، ب": 10219,
      "##ون\n": 10220,
      "## رجال": 10221,
      "##، ولد": 10222,
      "##زب": 10223,
      "##لاق": 10224,
      "## جام": 10225,
      "## وج": 10226,
      "## لي": 10227,
      "##كوم": 10228,
      "##وسي": 10229,
      "## العام": 10230,
      "## الكويكب": 10231,
      "##لف": 10232,
      "##0.": 10233,
      "##ة بال": 10234,
      "##جموع": 10235,
      "##مع": 10236,
      "## انه": 10237,
      "##ة الس": 10238,
      "## 197": 10239,
      "## من الم": 10240,
      "##افلام": 10241,
      "## حيث": 10242,
      "## نادي": 10243,
      "##خب": 10244,
      "##لاي": 10245,
      "## ين": 10246,
      "##ودي": 10247,
      "##ة الث": 10248,
      "##بط": 10249,
      "## بن": 10250,
      "## ذ": 10251,
      "##مت": 10252,
      "##ضي": 10253,
      "## للم": 10254,
      "##الع": 10255,
      "##كن ": 10256,
      "##ميع": 10257,
      "## سب": 10258,
      "##ة الح": 10259,
      "## تح": 10260,
      "##ون في القرن ": 10261,
      "##اند": 10262,
      "##زام": 10263,
      "## وت": 10264,
      "## في 1": 10265,
      "##جلي": 10266,
      "##، ف": 10267,
      "##رياضي": 10268,
      "## الفي": 10269,
      "##وما": 10270,
      "##فق": 10271,
      "##\n\nوصلات خارجية \n \n\n": 10272,
      "## اكثر": 10273,
      "## اغ": 10274,
      "##اسم": 10275,
      "## المع": 10276,
      "## 194": 10277,
      "##.\n\nمراجع \n\n": 10278,
      "##ظام": 10279,
      "##خلال": 10280,
      "##به": 10281,
      "##ندا": 10282,
      "##كانت": 10283,
      "## وي": 10284,
      "##بن": 10285,
      "## غير": 10286,
      "##ات الا": 10287,
      "## تش": 10288,
      "## 196": 10289,
      "##on": 10290,
      "##ون م": 10291,
      "##كان ": 10292,
      "## سن": 10293,
      "##ربي": 10294,
      "##ريب": 10295,
      "##انية ": 10296,
      "##اسي": 10297,
      "##وفيات": 10298,
      "##ضاء": 10299,
      "##لاح": 10300,
      "## اد": 10301,
      "##ثم": 10302,
      "##رام": 10303,
      "##غتربون في": 10304,
      "##تها": 10305,
      "##راق": 10306,
      "##ة على": 10307,
      "##  هو": 10308,
      "##ختل": 10309,
      "## بد": 10310,
      "## عند": 10311,
      "## الاسر": 10312,
      "##راد": 10313,
      "##al": 10314,
      "##وى": 10315,
      "## الصغير": 10316,
      "##تد": 10317,
      "## تق": 10318,
      "##بير": 10319,
      "##  ": 10320,
      "##كس": 10321,
      "## علي": 10322,
      "## والم": 10323,
      "##en": 10324,
      "## الولايات المتحد": 10325,
      "## اول": 10326,
      "## الجن": 10327,
      "##فع": 10328,
      "##ارات": 10329,
      "##او": 10330,
      "##ايد": 10331,
      "##ابق": 10332,
      "## في الولايات المتحد": 10333,
      "##فل": 10334,
      "##ة الص": 10335,
      "##22": 10336,
      "##ية.": 10337,
      "##شت": 10338,
      "##ة ك": 10339,
      "##بح": 10340,
      "##وقع": 10341,
      "## نسبة ": 10342,
      "##ريد": 10343,
      "##قال": 10344,
      "##or": 10345,
      "##ارد": 10346,
      "##اكتش": 10347,
      "##ولى": 10348,
      "##ar": 10349,
      "## الامريكي": 10350,
      "##لاث": 10351,
      "## s": 10352,
      "##من ": 10353,
      "##ايو": 10354,
      "## في ب": 10355,
      "##ماء": 10356,
      "##كتب": 10357,
      "##تما": 10358,
      "##، ي": 10359,
      "##تن": 10360,
      "##ذي": 10361,
      "##مس": 10362,
      "## وز": 10363,
      "## الاست": 10364,
      "##قيق": 10365,
      "##18": 10366,
      "## 195": 10367,
      "##زل": 10368,
      "##ة الام": 10369,
      "##صول": 10370,
      "##رية ": 10371,
      "##وبر": 10372,
      "##ويل": 10373,
      "## c": 10374,
      "## الحرب": 10375,
      "##فاع": 10376,
      "##جز": 10377,
      "##ابط": 10378,
      "##امل": 10379,
      "##العاب": 10380,
      "## 4": 10381,
      "##رات": 10382,
      "##خري": 10383,
      "## بم": 10384,
      "## امريك": 10385,
      "##است": 10386,
      "##ة فلك": 10387,
      "## احد": 10388,
      "##المراجع \n\n": 10389,
      "## وحدة فلك": 10390,
      "##لغ": 10391,
      "##واسط": 10392,
      "##يف": 10393,
      "## المد": 10394,
      "## تحت": 10395,
      "##ة المت": 10396,
      "##عاد": 10397,
      "##كرة القدم": 10398,
      "##يش": 10399,
      "## –": 10400,
      "##تو": 10401,
      "##اليا": 10402,
      "##تى": 10403,
      "##طب": 10404,
      "## في 2": 10405,
      "##عن": 10406,
      "## لاعب": 10407,
      "## خلال": 10408,
      "##\n\nمراجع": 10409,
      "##\nوفيات": 10410,
      "## اح": 10411,
      "##روس": 10412,
      "##ريل": 10413,
      "##شرو": 10414,
      "##لب": 10415,
      "##ارا": 10416,
      "##كا": 10417,
      "## دول": 10418,
      "## منطق": 10419,
      "##عمال": 10420,
      "##طف": 10421,
      "## الدوري": 10422,
      "##is": 10423,
      "## من ال": 10424,
      "##كور": 10425,
      "## سنة ": 10426,
      "## البح": 10427,
      "## حتى": 10428,
      "##3.": 10429,
      "##ليل": 10430,
      "## في ك": 10431,
      "##سو": 10432,
      "## العديد": 10433,
      "## مست": 10434,
      "##ن ب": 10435,
      "##راب": 10436,
      "##تق": 10437,
      "##لكي": 10438,
      "##ية ا": 10439,
      "## بعض": 10440,
      "##ية لل": 10441,
      "##رد": 10442,
      "##ة و": 10443,
      "##ة الك": 10444,
      "##ورو": 10445,
      "##انظر": 10446,
      "## الحيا": 10447,
      "##، ت": 10448,
      "##كون ": 10449,
      "##قص": 10450,
      "##، ل": 10451,
      "##ضل": 10452,
      "##عمل": 10453,
      "##ملك": 10454,
      "## بح": 10455,
      "## في ح": 10456,
      "##دول": 10457,
      "## ست": 10458,
      "## يون": 10459,
      "## بشكل": 10460,
      "##لاد": 10461,
      "##انا": 10462,
      "##مه": 10463,
      "##ستخدم": 10464,
      "## البي": 10465,
      "##ادر": 10466,
      "##انظر ايضا": 10467,
      "## من قبل": 10468,
      "##اتح": 10469,
      "##ة الن": 10470,
      "## كما": 10471,
      "##فن": 10472,
      "##در": 10473,
      "##مكن": 10474,
      "## 5": 10475,
      "##جه": 10476,
      "##وير": 10477,
      "## دور": 10478,
      "##es": 10479,
      "## استخ": 10480,
      "##at": 10481,
      "## مص": 10482,
      "##اته": 10483,
      "## مارس": 10484,
      "##امي": 10485,
      "## في ت": 10486,
      "##فور": 10487,
      "##ناك": 10488,
      "##\n ": 10489,
      "##.\n\nمراجع\n\nوصلات خارجية \n \n\n": 10490,
      "##سلسل": 10491,
      "## بسبب": 10492,
      "##تحت": 10493,
      "##ابع": 10494,
      "##ون ب": 10495,
      "## جن": 10496,
      "## باسم": 10497,
      "##ات ت": 10498,
      "##ة الاولى": 10499,
      "##سياسي": 10500,
      "## الكويكبات": 10501,
      "## القرن": 10502,
      "##تج": 10503,
      "##زم": 10504,
      "##وث": 10505,
      "##20\n": 10506,
      "##دير": 10507,
      "## 6": 10508,
      "## على ق": 10509,
      "## الاس": 10510,
      "## 193": 10511,
      "## جميع": 10512,
      "## بواسط": 10513,
      "##عيش": 10514,
      "##حزام": 10515,
      "##غم": 10516,
      "##عداد": 10517,
      "##قاطعة ": 10518,
      "##جليز": 10519,
      "##شروع": 10520,
      "##هذا": 10521,
      "## مد": 10522,
      "##انون": 10523,
      "##ة ح": 10524,
      "##ايج": 10525,
      "## اث": 10526,
      "## ني": 10527,
      "##هاي": 10528,
      "##ة \n": 10529,
      "## الدول": 10530,
      "##وليو": 10531,
      "## بين ": 10532,
      "##براير": 10533,
      "##تمبر": 10534,
      "## t": 10535,
      "## ان ي": 10536,
      "##ختلف": 10537,
      "##الات": 10538,
      "##سكري": 10539,
      "## للا": 10540,
      "## مر": 10541,
      "##انية": 10542,
      "## ولاي": 10543,
      "##ة او": 10544,
      "##امس": 10545,
      "##تا": 10546,
      "##طر": 10547,
      "## نفس": 10548,
      "## المست": 10549,
      "##اتحاد": 10550,
      "##واكب": 10551,
      "##عشر": 10552,
      "##كتوبر": 10553,
      "##.\n\nفي": 10554,
      "## 2000": 10555,
      "##ميز": 10556,
      "##ترا": 10557,
      "##ورك": 10558,
      "##لق": 10559,
      "##جد": 10560,
      "## تس": 10561,
      "## مق": 10562,
      "##ضع": 10563,
      "##غو": 10564,
      "## كرة قدم رجال": 10565,
      "##غي": 10566,
      "## قبل": 10567,
      "##عرف": 10568,
      "##اهد": 10569,
      "##سطس": 10570,
      "##ة الب": 10571,
      "##عدد": 10572,
      "##روابط": 10573,
      "##ات الت": 10574,
      "##ة الق": 10575,
      "##ابل": 10576,
      "## \"": 10577,
      "##ضم": 10578,
      "##حق": 10579,
      "## جامعة ": 10580,
      "## الاص": 10581,
      "## اخ": 10582,
      "## مي": 10583,
      "## فبراير": 10584,
      "## مش": 10585,
      "##المي": 10586,
      "##سن": 10587,
      "##جام": 10588,
      "##ايص": 10589,
      "##\nلاعبو نادي": 10590,
      "## سبتمبر": 10591,
      "## قد": 10592,
      "## ابريل": 10593,
      "## السي": 10594,
      "##واقع": 10595,
      "##، وت": 10596,
      "## لكرة القدم": 10597,
      "## الارض": 10598,
      "##قاعد": 10599,
      "## الاش": 10600,
      "##تاريخ": 10601,
      "## تن": 10602,
      "## الز": 10603,
      "##ون من": 10604,
      "## الوط": 10605,
      "## يناير": 10606,
      "## من اصل": 10607,
      "##طاق": 10608,
      "##اخ": 10609,
      "## كت": 10610,
      "##ة (": 10611,
      "## الانت": 10612,
      "##شري": 10613,
      "##66": 10614,
      "##روف": 10615,
      "##خريجو": 10616,
      "## عام 201": 10617,
      "## الدرج": 10618,
      "##ات و": 10619,
      "## الرييسي": 10620,
      "##امج": 10621,
      "##اول": 10622,
      "##اما": 10623,
      "##ون امريكي": 10624,
      "##ة)": 10625,
      "##200": 10626,
      "##وقت": 10627,
      "##انه": 10628,
      "##10": 10629,
      "##حيث": 10630,
      "##راف": 10631,
      "##جتما": 10632,
      "## قايم": 10633,
      "##14": 10634,
      "##ة الش": 10635,
      "## العالم": 10636,
      "##ركي": 10637,
      "## مايو": 10638,
      "## الاف": 10639,
      "##برا": 10640,
      "##وروب": 10641,
      "##اعضاء": 10642,
      "##هذه": 10643,
      "## يوليو": 10644,
      "##مبر": 10645,
      "##15": 10646,
      "## الو": 10647,
      "##ياد": 10648,
      "##ون من ": 10649,
      "## وف": 10650,
      "##ايا": 10651,
      "##ية من": 10652,
      "## مثل": 10653,
      "## عمل": 10654,
      "##دينة ": 10655,
      "## تت": 10656,
      "##نادي": 10657,
      "##شف": 10658,
      "##اتي": 10659,
      "##ة ج": 10660,
      "## المج": 10661,
      "## انها": 10662,
      "##برت": 10663,
      "## p": 10664,
      "## وجود": 10665,
      "## اص": 10666,
      "## منت": 10667,
      "##، وهو": 10668,
      "##الب": 10669,
      "## بـ": 10670,
      "##سمبر": 10671,
      "## اكتوبر": 10672,
      "##ة»": 10673,
      "##طفال": 10674,
      "## اغسطس": 10675,
      "##مو": 10676,
      "## m": 10677,
      "## العايل": 10678,
      "##\nافلام": 10679,
      "## المص": 10680,
      "##لل": 10681,
      "##حو": 10682,
      "##ينا": 10683,
      "##وفمبر": 10684,
      "##وجد": 10685,
      "##علق": 10686,
      "##ون\nم": 10687,
      "##it": 10688,
      "##ولوج": 10689,
      "## 17": 10690,
      "## مجلس": 10691,
      "##17": 10692,
      "##نس": 10693,
      "##كسي": 10694,
      "##ميد": 10695,
      "##نف": 10696,
      "##قرا": 10697,
      "##يد الحيا": 10698,
      "##انب": 10699,
      "##ic": 10700,
      "##ات ا": 10701,
      "##ريطاني": 10702,
      "## عاما": 10703,
      "##ون\nلاعبو كرة قدم": 10704,
      "##الث": 10705,
      "##واد": 10706,
      "## العمل": 10707,
      "##.\n\nانظر ايضا": 10708,
      "## الاد": 10709,
      "##بت": 10710,
      "## يونيو": 10711,
      "## (19": 10712,
      "## |": 10713,
      "## على قيد الحيا": 10714,
      "##طول": 10715,
[...]
